{
  "version": "1.0",
  "truncation": null,
  "padding": null,
  "added_tokens": [
    {
      "id": 0,
      "content": "[PAD]",
      "single_word": false,
      "lstrip": false,
      "rstrip": false,
      "normalized": false,
      "special": true
    },
    {
      "id": 1,
      "content": "[UNK]",
      "single_word": false,
      "lstrip": false,
      "rstrip": false,
      "normalized": false,
      "special": true
    },
    {
      "id": 2,
      "content": "[CLS]",
      "single_word": false,
      "lstrip": false,
      "rstrip": false,
      "normalized": false,
      "special": true
    },
    {
      "id": 3,
      "content": "[SEP]",
      "single_word": false,
      "lstrip": false,
      "rstrip": false,
      "normalized": false,
      "special": true
    },
    {
      "id": 4,
      "content": "[MASK]",
      "single_word": false,
      "lstrip": false,
      "rstrip": false,
      "normalized": false,
      "special": true
    }
  ],
  "normalizer": {
    "type": "Sequence",
    "normalizers": [
      {
        "type": "NFD"
      },
      {
        "type": "Lowercase"
      },
      {
        "type": "StripAccents"
      }
    ]
  },
  "pre_tokenizer": {
    "type": "Whitespace"
  },
  "post_processor": {
    "type": "TemplateProcessing",
    "single": [
      {
        "SpecialToken": {
          "id": "[CLS]",
          "type_id": 0
        }
      },
      {
        "Sequence": {
          "id": "A",
          "type_id": 0
        }
      },
      {
        "SpecialToken": {
          "id": "[SEP]",
          "type_id": 0
        }
      }
    ],
    "pair": [
      {
        "Sequence": {
          "id": "A",
          "type_id": 0
        }
      },
      {
        "Sequence": {
          "id": "B",
          "type_id": 1
        }
      }
    ],
    "special_tokens": {
      "[CLS]": {
        "id": "[CLS]",
        "ids": [
          1
        ],
        "tokens": [
          "[CLS]"
        ]
      },
      "[SEP]": {
        "id": "[SEP]",
        "ids": [
          2
        ],
        "tokens": [
          "[SEP]"
        ]
      }
    }
  },
  "decoder": null,
  "model": {
    "type": "BPE",
    "dropout": null,
    "unk_token": null,
    "continuing_subword_prefix": null,
    "end_of_word_suffix": null,
    "fuse_unk": false,
    "byte_fallback": false,
    "ignore_merges": false,
    "vocab": {
      "[PAD]": 0,
      "[UNK]": 1,
      "[CLS]": 2,
      "[SEP]": 3,
      "[MASK]": 4,
      "\b": 5,
      "\u0010": 6,
      "!": 7,
      "\"": 8,
      "#": 9,
      "$": 10,
      "%": 11,
      "&": 12,
      "'": 13,
      "(": 14,
      ")": 15,
      "*": 16,
      "+": 17,
      ",": 18,
      "-": 19,
      ".": 20,
      "/": 21,
      "0": 22,
      "1": 23,
      "2": 24,
      "3": 25,
      "4": 26,
      "5": 27,
      "6": 28,
      "7": 29,
      "8": 30,
      "9": 31,
      ":": 32,
      ";": 33,
      "<": 34,
      "=": 35,
      ">": 36,
      "?": 37,
      "@": 38,
      "[": 39,
      "\\": 40,
      "]": 41,
      "^": 42,
      "_": 43,
      "`": 44,
      "a": 45,
      "b": 46,
      "c": 47,
      "d": 48,
      "e": 49,
      "f": 50,
      "g": 51,
      "h": 52,
      "i": 53,
      "j": 54,
      "k": 55,
      "l": 56,
      "m": 57,
      "n": 58,
      "o": 59,
      "p": 60,
      "q": 61,
      "r": 62,
      "s": 63,
      "t": 64,
      "u": 65,
      "v": 66,
      "w": 67,
      "x": 68,
      "y": 69,
      "z": 70,
      "{": 71,
      "|": 72,
      "}": 73,
      "~": 74,
      "": 75,
      "": 76,
      "": 77,
      "": 78,
      "": 79,
      "": 80,
      "": 81,
      "": 82,
      "": 83,
      "": 84,
      "¡": 85,
      "£": 86,
      "¤": 87,
      "¦": 88,
      "§": 89,
      "¨": 90,
      "«": 91,
      "®": 92,
      "°": 93,
      "³": 94,
      "´": 95,
      "·": 96,
      "»": 97,
      "½": 98,
      "¾": 99,
      "¿": 100,
      "ß": 101,
      "æ": 102,
      "ð": 103,
      "ø": 104,
      "–": 105,
      "‘": 106,
      "’": 107,
      "“": 108,
      "”": 109,
      "…": 110,
      "₤": 111,
      "": 112,
      "th": 113,
      "in": 114,
      "the": 115,
      "an": 116,
      "er": 117,
      "is": 118,
      "re": 119,
      "on": 120,
      "at": 121,
      "en": 122,
      "to": 123,
      "ou": 124,
      "ing": 125,
      "es": 126,
      "al": 127,
      "it": 128,
      "as": 129,
      "and": 130,
      "or": 131,
      "ar": 132,
      "of": 133,
      "ed": 134,
      "il": 135,
      "st": 136,
      "ly": 137,
      "ch": 138,
      "br": 139,
      "le": 140,
      "se": 141,
      "om": 142,
      "/>": 143,
      "be": 144,
      "mo": 145,
      "wh": 146,
      "ac": 147,
      "ic": 148,
      "ve": 149,
      "this": 150,
      "no": 151,
      "ie": 152,
      "ad": 153,
      "that": 154,
      "ver": 155,
      "lo": 156,
      "ut": 157,
      "ent": 158,
      "for": 159,
      "he": 160,
      "im": 161,
      "ion": 162,
      "ay": 163,
      "ter": 164,
      "am": 165,
      "gh": 166,
      "li": 167,
      "mov": 168,
      "was": 169,
      "un": 170,
      "id": 171,
      "wi": 172,
      "fil": 173,
      "ro": 174,
      "/><": 175,
      "ke": 176,
      "film": 177,
      "with": 178,
      "ab": 179,
      "el": 180,
      "ho": 181,
      "one": 182,
      "ld": 183,
      "you": 184,
      "ha": 185,
      "but": 186,
      "movie": 187,
      "ir": 188,
      "are": 189,
      "ge": 190,
      "su": 191,
      "out": 192,
      "ri": 193,
      "so": 194,
      "go": 195,
      ".<": 196,
      "pe": 197,
      "all": 198,
      "de": 199,
      "ce": 200,
      "ome": 201,
      "ul": 202,
      "not": 203,
      "do": 204,
      "po": 205,
      "ally": 206,
      "ther": 207,
      "tor": 208,
      "fe": 209,
      "his": 210,
      "ne": 211,
      "her": 212,
      "ts": 213,
      "sc": 214,
      "od": 215,
      "ma": 216,
      "com": 217,
      "tr": 218,
      "ill": 219,
      "man": 220,
      "ap": 221,
      "ould": 222,
      "if": 223,
      "me": 224,
      "ur": 225,
      "us": 226,
      "ex": 227,
      "have": 228,
      "act": 229,
      "..": 230,
      "some": 231,
      "fr": 232,
      "ust": 233,
      "per": 234,
      "who": 235,
      "pl": 236,
      "ght": 237,
      "we": 238,
      "est": 239,
      "ct": 240,
      "end": 241,
      "con": 242,
      "ess": 243,
      "by": 244,
      "very": 245,
      "thing": 246,
      "di": 247,
      "ain": 248,
      "wor": 249,
      "they": 250,
      "au": 251,
      "like": 252,
      "see": 253,
      "ere": 254,
      "how": 255,
      "ant": 256,
      "ell": 257,
      "ag": 258,
      "tim": 259,
      "ple": 260,
      "from": 261,
      "art": 262,
      "ok": 263,
      "te": 264,
      "ous": 265,
      "ol": 266,
      "up": 267,
      "there": 268,
      "qu": 269,
      "pre": 270,
      "ven": 271,
      "pro": 272,
      "sh": 273,
      "ies": 274,
      "bo": 275,
      "char": 276,
      "ast": 277,
      "just": 278,
      "ation": 279,
      "what": 280,
      "ack": 281,
      "ough": 282,
      "my": 283,
      "oun": 284,
      "way": 285,
      "ind": 286,
      "has": 287,
      "other": 288,
      "can": 289,
      "about": 290,
      "ate": 291,
      "ers": 292,
      "atch": 293,
      "any": 294,
      "ig": 295,
      "ive": 296,
      "ist": 297,
      "she": 298,
      "good": 299,
      "der": 300,
      "ment": 301,
      "more": 302,
      "tory": 303,
      "ard": 304,
      "get": 305,
      "co": 306,
      "acter": 307,
      "character": 308,
      "watch": 309,
      "wn": 310,
      "ine": 311,
      "when": 312,
      "ich": 313,
      "ure": 314,
      "gr": 315,
      "reat": 316,
      "ong": 317,
      "would": 318,
      "jo": 319,
      "able": 320,
      "time": 321,
      "even": 322,
      "ss": 323,
      "ity": 324,
      "sp": 325,
      "story": 326,
      "ite": 327,
      "ak": 328,
      "our": 329,
      "most": 330,
      "now": 331,
      "ound": 332,
      "ful": 333,
      "ame": 334,
      "um": 335,
      "cl": 336,
      "gu": 337,
      "int": 338,
      "ck": 339,
      "which": 340,
      "wo": 341,
      "ty": 342,
      "only": 343,
      "had": 344,
      "ye": 345,
      "really": 346,
      "ide": 347,
      "well": 348,
      "ra": 349,
      "its": 350,
      "than": 351,
      "ble": 352,
      "their": 353,
      "scen": 354,
      "ight": 355,
      "show": 356,
      "bec": 357,
      "uch": 358,
      "pt": 359,
      "lot": 360,
      "were": 361,
      "him": 362,
      "fo": 363,
      "play": 364,
      "ade": 365,
      "sel": 366,
      "af": 367,
      "ink": 368,
      "did": 369,
      "over": 370,
      "av": 371,
      "ick": 372,
      "aw": 373,
      "ious": 374,
      "look": 375,
      "does": 376,
      "don": 377,
      "itt": 378,
      "ep": 379,
      "dis": 380,
      "bad": 381,
      "great": 382,
      "bet": 383,
      "pp": 384,
      "pr": 385,
      "bl": 386,
      "age": 387,
      "will": 388,
      "ars": 389,
      "low": 390,
      "ice": 391,
      "ause": 392,
      "ence": 393,
      "off": 394,
      "much": 395,
      "ish": 396,
      "them": 397,
      "ass": 398,
      "fir": 399,
      "dire": 400,
      "peo": 401,
      "ci": 402,
      "could": 403,
      "people": 404,
      "been": 405,
      "every": 406,
      "...": 407,
      "real": 408,
      "into": 409,
      "also": 410,
      "first": 411,
      "mak": 412,
      "cr": 413,
      "because": 414,
      "think": 415,
      "ber": 416,
      "ud": 417,
      "make": 418,
      "ser": 419,
      "ort": 420,
      "ves": 421,
      "ire": 422,
      "son": 423,
      "fun": 424,
      "made": 425,
      "then": 426,
      "wr": 427,
      "thr": 428,
      "too": 429,
      "work": 430,
      "after": 431,
      "where": 432,
      "du": 433,
      "fa": 434,
      "inter": 435,
      "ace": 436,
      "mar": 437,
      "self": 438,
      "ile": 439,
      "part": 440,
      "know": 441,
      "movies": 442,
      "say": 443,
      "ever": 444,
      "seem": 445,
      "ll": 446,
      "vie": 447,
      "ated": 448,
      "cre": 449,
      "spe": 450,
      "though": 451,
      "ical": 452,
      "ps": 453,
      "actor": 454,
      "dr": 455,
      "ting": 456,
      "fl": 457,
      "fin": 458,
      "ren": 459,
      "characters": 460,
      "view": 461,
      "love": 462,
      "ving": 463,
      "less": 464,
      "tain": 465,
      "back": 466,
      "des": 467,
      "ance": 468,
      "ans": 469,
      "ach": 470,
      "two": 471,
      "many": 472,
      "life": 473,
      "plot": 474,
      "your": 475,
      "films": 476,
      "hor": 477,
      "never": 478,
      "ang": 479,
      "being": 480,
      "acting": 481,
      "ny": 482,
      "seen": 483,
      "min": 484,
      "str": 485,
      "day": 486,
      "sho": 487,
      "ary": 488,
      "here": 489,
      "tal": 490,
      "ces": 491,
      "bel": 492,
      "mat": 493,
      "gi": 494,
      "best": 495,
      "),": 496,
      "ittle": 497,
      "ta": 498,
      "little": 499,
      "through": 500,
      "tur": 501,
      "ctor": 502,
      "che": 503,
      "ction": 504,
      "new": 505,
      "ree": 506,
      ").": 507,
      "try": 508,
      "cent": 509,
      "19": 510,
      "point": 511,
      "ily": 512,
      "ens": 513,
      "igh": 514,
      "may": 515,
      "kill": 516,
      "fore": 517,
      "mis": 518,
      "iz": 519,
      "ict": 520,
      "ved": 521,
      "fer": 522,
      "ose": 523,
      "car": 524,
      "ually": 525,
      "while": 526,
      "amer": 527,
      "still": 528,
      "better": 529,
      "ef": 530,
      "ot": 531,
      "--": 532,
      "ning": 533,
      "sur": 534,
      "tru": 535,
      "fri": 536,
      "perfor": 537,
      "gen": 538,
      "won": 539,
      "under": 540,
      "again": 541,
      "!!": 542,
      "should": 543,
      "ave": 544,
      "old": 545,
      "scene": 546,
      "cast": 547,
      "find": 548,
      "these": 549,
      "ild": 550,
      "ase": 551,
      "ste": 552,
      "read": 553,
      "augh": 554,
      "op": 555,
      "want": 556,
      "mon": 557,
      "sim": 558,
      "why": 559,
      "feel": 560,
      "scenes": 561,
      "vers": 562,
      "ry": 563,
      "director": 564,
      "ought": 565,
      "par": 566,
      "stand": 567,
      "ertain": 568,
      "such": 569,
      "10": 570,
      "happ": 571,
      "fam": 572,
      "interest": 573,
      "something": 574,
      "les": 575,
      "cho": 576,
      "irl": 577,
      "friend": 578,
      "ev": 579,
      "ath": 580,
      "tri": 581,
      "belie": 582,
      "red": 583,
      "girl": 584,
      "sto": 585,
      "ise": 586,
      "ably": 587,
      "ian": 588,
      "ions": 589,
      "ph": 590,
      "et": 591,
      "ating": 592,
      "turn": 593,
      "scre": 594,
      "wom": 595,
      "performan": 596,
      "got": 597,
      "down": 598,
      "ense": 599,
      "joy": 600,
      "pret": 601,
      "ason": 602,
      "mus": 603,
      "arly": 604,
      "ror": 605,
      "star": 606,
      "ins": 607,
      "those": 608,
      "tak": 609,
      "watching": 610,
      "actors": 611,
      "ob": 612,
      "war": 613,
      "doesn": 614,
      "funny": 615,
      "gl": 616,
      "pos": 617,
      "big": 618,
      "ents": 619,
      "times": 620,
      "ip": 621,
      "years": 622,
      "inal": 623,
      "comm": 624,
      "em": 625,
      "ial": 626,
      "long": 627,
      "didn": 628,
      "ng": 629,
      "ash": 630,
      "att": 631,
      "mem": 632,
      "another": 633,
      "set": 634,
      "enjoy": 635,
      "ater": 636,
      "comed": 637,
      "young": 638,
      "guy": 639,
      "before": 640,
      "ways": 641,
      "vi": 642,
      "nothing": 643,
      "own": 644,
      "makes": 645,
      "going": 646,
      "orig": 647,
      "bu": 648,
      "high": 649,
      "bit": 650,
      "produ": 651,
      "world": 652,
      "king": 653,
      "col": 654,
      "actually": 655,
      "vis": 656,
      "az": 657,
      "put": 658,
      "sm": 659,
      "hu": 660,
      "right": 661,
      "same": 662,
      "fect": 663,
      "few": 664,
      "exc": 665,
      "ual": 666,
      "sa": 667,
      "action": 668,
      "dif": 669,
      "icul": 670,
      "let": 671,
      "light": 672,
      "rel": 673,
      "laugh": 674,
      "comes": 675,
      "hard": 676,
      "cor": 677,
      "sub": 678,
      "wood": 679,
      "sin": 680,
      "come": 681,
      "je": 682,
      "appe": 683,
      "bor": 684,
      "sing": 685,
      "cts": 686,
      "por": 687,
      "quite": 688,
      "ted": 689,
      "far": 690,
      "ute": 691,
      "screen": 692,
      "cle": 693,
      "need": 694,
      "horror": 695,
      "original": 696,
      "pect": 697,
      "ween": 698,
      "comple": 699,
      "pretty": 700,
      "hel": 701,
      "thought": 702,
      "writ": 703,
      "things": 704,
      "fact": 705,
      "pa": 706,
      "wonder": 707,
      "ten": 708,
      "ript": 709,
      "ress": 710,
      "around": 711,
      "take": 712,
      "mind": 713,
      "seems": 714,
      "ner": 715,
      "person": 716,
      "kid": 717,
      "ia": 718,
      "ks": 719,
      "sure": 720,
      "**": 721,
      "tell": 722,
      "howe": 723,
      "however": 724,
      "beg": 725,
      "inv": 726,
      "kind": 727,
      "bas": 728,
      "aut": 729,
      "cept": 730,
      "cial": 731,
      "cont": 732,
      "give": 733,
      "pare": 734,
      "ically": 735,
      "saw": 736,
      "americ": 737,
      "enough": 738,
      "series": 739,
      "fort": 740,
      "between": 741,
      "ster": 742,
      "cour": 743,
      "ward": 744,
      "main": 745,
      "both": 746,
      "script": 747,
      "ody": 748,
      "gets": 749,
      "interesting": 750,
      "care": 751,
      "ately": 752,
      "mom": 753,
      "ations": 754,
      "class": 755,
      "must": 756,
      "hand": 757,
      "clo": 758,
      "worth": 759,
      "press": 760,
      "ending": 761,
      "ness": 762,
      "child": 763,
      "cess": 764,
      "sex": 765,
      "vel": 766,
      "boy": 767,
      "comedy": 768,
      "done": 769,
      "ced": 770,
      "always": 771,
      "call": 772,
      "add": 773,
      "without": 774,
      "expect": 775,
      "cine": 776,
      "isn": 777,
      "last": 778,
      "grap": 779,
      "family": 780,
      "reason": 781,
      "used": 782,
      "mer": 783,
      "lead": 784,
      "beaut": 785,
      "bar": 786,
      "line": 787,
      "vious": 788,
      "music": 789,
      "role": 790,
      "row": 791,
      "med": 792,
      "least": 793,
      "ale": 794,
      "night": 795,
      "book": 796,
      "sound": 797,
      "tem": 798,
      "illi": 799,
      "whole": 800,
      "ouse": 801,
      "\",": 802,
      "almost": 803,
      "led": 804,
      "mas": 805,
      "pol": 806,
      "ger": 807,
      "ms": 808,
      "making": 809,
      "coun": 810,
      "hy": 811,
      "head": 812,
      "cap": 813,
      "wer": 814,
      "mot": 815,
      "alo": 816,
      "might": 817,
      "ings": 818,
      "start": 819,
      "ff": 820,
      "run": 821,
      "differ": 822,
      "sequ": 823,
      "ue": 824,
      "val": 825,
      "utes": 826,
      "tv": 827,
      "use": 828,
      "vo": 829,
      "lin": 830,
      "na": 831,
      "away": 832,
      "ane": 833,
      "spo": 834,
      "woman": 835,
      "sid": 836,
      "ying": 837,
      "anything": 838,
      "prob": 839,
      "chr": 840,
      "joh": 841,
      "audi": 842,
      "espe": 843,
      "rible": 844,
      "complete": 845,
      "minutes": 846,
      "yes": 847,
      "ible": 848,
      "pie": 849,
      "performance": 850,
      "since": 851,
      "ft": 852,
      "hal": 853,
      "sent": 854,
      "ug": 855,
      "sy": 856,
      "yet": 857,
      "tit": 858,
      "super": 859,
      "00": 860,
      "men": 861,
      "blo": 862,
      "cond": 863,
      "john": 864,
      "mean": 865,
      "ign": 866,
      "sol": 867,
      "fol": 868,
      "stu": 869,
      "dec": 870,
      "bre": 871,
      "entertain": 872,
      "land": 873,
      "hol": 874,
      "ional": 875,
      "ature": 876,
      "poss": 877,
      "probably": 878,
      "found": 879,
      "house": 880,
      "den": 881,
      "dram": 882,
      "tw": 883,
      "wal": 884,
      "ton": 885,
      "rather": 886,
      "poor": 887,
      "worst": 888,
      "ked": 889,
      "iful": 890,
      "\".": 891,
      "place": 892,
      "ange": 893,
      "oney": 894,
      "cially": 895,
      "played": 896,
      "ark": 897,
      "ments": 898,
      "unt": 899,
      "sl": 900,
      "uring": 901,
      "anyone": 902,
      "rest": 903,
      "top": 904,
      "having": 905,
      "cur": 906,
      "dan": 907,
      "sense": 908,
      "ext": 909,
      "cut": 910,
      "epis": 911,
      "pris": 912,
      "ult": 913,
      "mur": 914,
      "happen": 915,
      "har": 916,
      "mor": 917,
      "cu": 918,
      "dialo": 919,
      "each": 920,
      "ped": 921,
      "ative": 922,
      "course": 923,
      "father": 924,
      "although": 925,
      "looking": 926,
      "beautiful": 927,
      "keep": 928,
      "body": 929,
      "lu": 930,
      "especially": 931,
      "hum": 932,
      "anim": 933,
      "different": 934,
      "bud": 935,
      "second": 936,
      "pict": 937,
      "side": 938,
      "trying": 939,
      "nor": 940,
      "direct": 941,
      "believe": 942,
      ".\"": 943,
      "job": 944,
      "dv": 945,
      "looks": 946,
      "goes": 947,
      "year": 948,
      "imp": 949,
      "peri": 950,
      "ither": 951,
      "dvd": 952,
      "plays": 953,
      "sup": 954,
      "posed": 955,
      "fall": 956,
      "true": 957,
      "human": 958,
      "fan": 959,
      "black": 960,
      "ics": 961,
      "vin": 962,
      "member": 963,
      "fully": 964,
      "proble": 965,
      "money": 966,
      "gether": 967,
      "creat": 968,
      "together": 969,
      "miss": 970,
      "imag": 971,
      "once": 972,
      "ingly": 973,
      "ney": 974,
      "everything": 975,
      "commend": 976,
      "wasn": 977,
      "certain": 978,
      "maybe": 979,
      "american": 980,
      "three": 981,
      "half": 982,
      "usu": 983,
      "stead": 984,
      "shows": 985,
      "ear": 986,
      "someone": 987,
      "nice": 988,
      "perfect": 989,
      "fav": 990,
      "version": 991,
      "fects": 992,
      "rom": 993,
      "dead": 994,
      "vide": 995,
      "fel": 996,
      "ele": 997,
      "pul": 998,
      "istic": 999,
      "amp": 1000,
      "death": 1001,
      "follow": 1002,
      "sit": 1003,
      "ond": 1004,
      "later": 1005,
      "sty": 1006,
      "wife": 1007,
      "spect": 1008,
      "plo": 1009,
      "watched": 1010,
      "bly": 1011,
      "rele": 1012,
      "plain": 1013,
      "recommend": 1014,
      "takes": 1015,
      "obvious": 1016,
      "ants": 1017,
      "said": 1018,
      "ni": 1019,
      "audience": 1020,
      "ca": 1021,
      "sha": 1022,
      "paren": 1023,
      "gy": 1024,
      "hour": 1025,
      "iting": 1026,
      "bur": 1027,
      "ru": 1028,
      "effects": 1029,
      "word": 1030,
      "wa": 1031,
      "understand": 1032,
      "ank": 1033,
      "everyone": 1034,
      "instead": 1035,
      "ality": 1036,
      "gre": 1037,
      "help": 1038,
      "special": 1039,
      "review": 1040,
      "la": 1041,
      "short": 1042,
      "mi": 1043,
      "others": 1044,
      "himself": 1045,
      "cy": 1046,
      "ilar": 1047,
      "ates": 1048,
      "que": 1049,
      "io": 1050,
      "gue": 1051,
      "cal": 1052,
      "rid": 1053,
      "sk": 1054,
      "else": 1055,
      "excell": 1056,
      "piece": 1057,
      "left": 1058,
      "form": 1059,
      "shot": 1060,
      "camer": 1061,
      "during": 1062,
      "ship": 1063,
      "ames": 1064,
      "heart": 1065,
      "simp": 1066,
      "ism": 1067,
      "ences": 1068,
      "cou": 1069,
      "lywood": 1070,
      "incl": 1071,
      "tray": 1072,
      "cer": 1073,
      "begin": 1074,
      "defin": 1075,
      "excellent": 1076,
      "came": 1077,
      "home": 1078,
      "gener": 1079,
      "ling": 1080,
      "entire": 1081,
      "itch": 1082,
      "....": 1083,
      "seeing": 1084,
      "ited": 1085,
      "fre": 1086,
      "eas": 1087,
      "ross": 1088,
      "invol": 1089,
      "pass": 1090,
      "picture": 1091,
      "face": 1092,
      "serious": 1093,
      "ters": 1094,
      "als": 1095,
      "ah": 1096,
      "idea": 1097,
      "remember": 1098,
      "fortun": 1099,
      "production": 1100,
      "given": 1101,
      "hero": 1102,
      "dre": 1103,
      "attem": 1104,
      "ired": 1105,
      "ition": 1106,
      "ists": 1107,
      "cing": 1108,
      "0s": 1109,
      "simply": 1110,
      "suc": 1111,
      "cus": 1112,
      "stup": 1113,
      "omb": 1114,
      "dou": 1115,
      "disap": 1116,
      "pport": 1117,
      "lack": 1118,
      "fair": 1119,
      "ned": 1120,
      "song": 1121,
      "xt": 1122,
      "hollywood": 1123,
      "win": 1124,
      "video": 1125,
      "friends": 1126,
      "stupid": 1127,
      "ird": 1128,
      "sci": 1129,
      "mother": 1130,
      "air": 1131,
      "mess": 1132,
      "sil": 1133,
      "full": 1134,
      "ject": 1135,
      "open": 1136,
      "supposed": 1137,
      "wrong": 1138,
      "dark": 1139,
      "sad": 1140,
      "portray": 1141,
      "num": 1142,
      "budget": 1143,
      "disappoint": 1144,
      "ons": 1145,
      "sat": 1146,
      "except": 1147,
      "completely": 1148,
      "ones": 1149,
      "sul": 1150,
      "along": 1151,
      "either": 1152,
      "performances": 1153,
      "vic": 1154,
      "absol": 1155,
      "dri": 1156,
      "scho": 1157,
      "boring": 1158,
      "bro": 1159,
      "fight": 1160,
      "ends": 1161,
      "school": 1162,
      "kno": 1163,
      "particul": 1164,
      "absolute": 1165,
      "emot": 1166,
      "fail": 1167,
      "band": 1168,
      "camera": 1169,
      "small": 1170,
      "classic": 1171,
      "using": 1172,
      "consid": 1173,
      "cra": 1174,
      "pain": 1175,
      "tic": 1176,
      "mid": 1177,
      "ore": 1178,
      "christ": 1179,
      "ident": 1180,
      "itten": 1181,
      "kids": 1182,
      "women": 1183,
      "stars": 1184,
      "amaz": 1185,
      "awful": 1186,
      "ries": 1187,
      "god": 1188,
      "power": 1189,
      "comp": 1190,
      "surpris": 1191,
      "fi": 1192,
      "consider": 1193,
      "cli": 1194,
      "truly": 1195,
      "cas": 1196,
      "exam": 1197,
      "viol": 1198,
      "eng": 1199,
      "until": 1200,
      "graphy": 1201,
      "case": 1202,
      "murder": 1203,
      "hope": 1204,
      "ley": 1205,
      "next": 1206,
      "lig": 1207,
      "favor": 1208,
      "ready": 1209,
      "mr": 1210,
      "velo": 1211,
      "getting": 1212,
      "name": 1213,
      "definite": 1214,
      "mag": 1215,
      "vent": 1216,
      "moments": 1217,
      "typ": 1218,
      "ler": 1219,
      "ming": 1220,
      "dy": 1221,
      "tra": 1222,
      "wonderful": 1223,
      "haps": 1224,
      "ors": 1225,
      "terrible": 1226,
      "fant": 1227,
      "sever": 1228,
      "live": 1229,
      "present": 1230,
      "uni": 1231,
      "playing": 1232,
      "couple": 1233,
      "cover": 1234,
      "perhaps": 1235,
      "slow": 1236,
      "develo": 1237,
      "ities": 1238,
      "flick": 1239,
      "gar": 1240,
      "written": 1241,
      "bert": 1242,
      "room": 1243,
      "jack": 1244,
      "lines": 1245,
      "tom": 1246,
      "dist": 1247,
      "deser": 1248,
      "feature": 1249,
      "ring": 1250,
      "ode": 1251,
      "ush": 1252,
      "ides": 1253,
      "mich": 1254,
      "felt": 1255,
      "non": 1256,
      "doing": 1257,
      "plan": 1258,
      "bb": 1259,
      "includ": 1260,
      "ize": 1261,
      "sort": 1262,
      "humor": 1263,
      "iness": 1264,
      "liked": 1265,
      "strong": 1266,
      "deli": 1267,
      "drama": 1268,
      "quest": 1269,
      "male": 1270,
      "unch": 1271,
      "spir": 1272,
      "episode": 1273,
      "mention": 1274,
      "often": 1275,
      "loved": 1276,
      "cop": 1277,
      "style": 1278,
      "aged": 1279,
      "gives": 1280,
      "ese": 1281,
      "turns": 1282,
      "actress": 1283,
      "ory": 1284,
      "early": 1285,
      "definitely": 1286,
      "brilli": 1287,
      "town": 1288,
      "guess": 1289,
      "oh": 1290,
      "ased": 1291,
      "cinemat": 1292,
      "dav": 1293,
      "dep": 1294,
      "oc": 1295,
      "ility": 1296,
      "mark": 1297,
      "talent": 1298,
      "dialogue": 1299,
      "hon": 1300,
      "experi": 1301,
      "break": 1302,
      "unfortun": 1303,
      "ital": 1304,
      "leg": 1305,
      "finally": 1306,
      "itself": 1307,
      "fine": 1308,
      "reg": 1309,
      "appear": 1310,
      "master": 1311,
      "lost": 1312,
      "coming": 1313,
      "ages": 1314,
      "become": 1315,
      "children": 1316,
      "list": 1317,
      "couldn": 1318,
      "impress": 1319,
      "close": 1320,
      "tly": 1321,
      "crim": 1322,
      "gun": 1323,
      "log": 1324,
      "title": 1325,
      "cinema": 1326,
      "pri": 1327,
      "thrill": 1328,
      "killer": 1329,
      "possible": 1330,
      "extre": 1331,
      "ith": 1332,
      "pu": 1333,
      "direction": 1334,
      "called": 1335,
      "credi": 1336,
      "desp": 1337,
      "went": 1338,
      "psy": 1339,
      "van": 1340,
      "worse": 1341,
      "absolutely": 1342,
      "wish": 1343,
      "against": 1344,
      "evil": 1345,
      "waste": 1346,
      "ben": 1347,
      "based": 1348,
      "fac": 1349,
      "sor": 1350,
      "blood": 1351,
      ",\"": 1352,
      "white": 1353,
      "ended": 1354,
      "relation": 1355,
      "problem": 1356,
      "ground": 1357,
      "tern": 1358,
      "pur": 1359,
      "brilliant": 1360,
      "certainly": 1361,
      "success": 1362,
      "conf": 1363,
      "ier": 1364,
      "support": 1365,
      "entertaining": 1366,
      "beginning": 1367,
      "gg": 1368,
      "ized": 1369,
      "track": 1370,
      "spoil": 1371,
      "cred": 1372,
      "hit": 1373,
      "lad": 1374,
      "teen": 1375,
      "sis": 1376,
      "myster": 1377,
      "extreme": 1378,
      "vable": 1379,
      "overall": 1380,
      "tries": 1381,
      "pat": 1382,
      "os": 1383,
      "lives": 1384,
      "fans": 1385,
      "lear": 1386,
      "nam": 1387,
      "daugh": 1388,
      "hind": 1389,
      "sou": 1390,
      "known": 1391,
      "several": 1392,
      "die": 1393,
      "mal": 1394,
      "selves": 1395,
      "attempt": 1396,
      "ention": 1397,
      "engl": 1398,
      "ann": 1399,
      "ues": 1400,
      "ball": 1401,
      "wanted": 1402,
      "works": 1403,
      "already": 1404,
      "dream": 1405,
      "dict": 1406,
      "writing": 1407,
      "zomb": 1408,
      "writer": 1409,
      "lar": 1410,
      "prom": 1411,
      "becomes": 1412,
      "ael": 1413,
      "vision": 1414,
      "ief": 1415,
      "days": 1416,
      "throughout": 1417,
      "arch": 1418,
      "rock": 1419,
      "example": 1420,
      "ude": 1421,
      "nat": 1422,
      "seemed": 1423,
      "crit": 1424,
      "200": 1425,
      "jor": 1426,
      "history": 1427,
      "key": 1428,
      "sum": 1429,
      "touch": 1430,
      "ific": 1431,
      "adm": 1432,
      "unfortunately": 1433,
      "effect": 1434,
      "crap": 1435,
      "genre": 1436,
      "vill": 1437,
      "despite": 1438,
      "tech": 1439,
      "und": 1440,
      "convin": 1441,
      "past": 1442,
      "allow": 1443,
      "rif": 1444,
      "pick": 1445,
      "type": 1446,
      "colle": 1447,
      "michael": 1448,
      "final": 1449,
      "game": 1450,
      "tot": 1451,
      "soon": 1452,
      "hold": 1453,
      "anno": 1454,
      "indi": 1455,
      "mentary": 1456,
      "atic": 1457,
      "aim": 1458,
      "scar": 1459,
      "viewer": 1460,
      "quality": 1461,
      "ture": 1462,
      "si": 1463,
      "totally": 1464,
      "susp": 1465,
      "explo": 1466,
      "foot": 1467,
      "dra": 1468,
      "wants": 1469,
      "guys": 1470,
      "bi": 1471,
      "girls": 1472,
      "deal": 1473,
      "ided": 1474,
      "antic": 1475,
      "behind": 1476,
      "iv": 1477,
      "bed": 1478,
      "usual": 1479,
      "stay": 1480,
      "lee": 1481,
      "late": 1482,
      "amazing": 1483,
      "rating": 1484,
      "wise": 1485,
      "ino": 1486,
      "bus": 1487,
      "!<": 1488,
      "ding": 1489,
      "aring": 1490,
      "city": 1491,
      "mil": 1492,
      "contin": 1493,
      "pho": 1494,
      "unk": 1495,
      "ow": 1496,
      "vir": 1497,
      "orge": 1498,
      "parts": 1499,
      "fig": 1500,
      "novel": 1501,
      "dam": 1502,
      "swe": 1503,
      "import": 1504,
      "eyes": 1505,
      "prof": 1506,
      "ord": 1507,
      "ek": 1508,
      ").<": 1509,
      "stuff": 1510,
      "apparen": 1511,
      "tent": 1512,
      "sometimes": 1513,
      "horrible": 1514,
      "ket": 1515,
      "gave": 1516,
      "situ": 1517,
      "favorite": 1518,
      "event": 1519,
      "today": 1520,
      "step": 1521,
      "ull": 1522,
      "mad": 1523,
      "directed": 1524,
      "none": 1525,
      "etc": 1526,
      "del": 1527,
      "docu": 1528,
      "trans": 1529,
      "speak": 1530,
      "ches": 1531,
      "moment": 1532,
      "hop": 1533,
      "mill": 1534,
      "starts": 1535,
      "level": 1536,
      "ris": 1537,
      "daughter": 1538,
      "police": 1539,
      "intel": 1540,
      "ali": 1541,
      "grou": 1542,
      "themselves": 1543,
      "arr": 1544,
      "ried": 1545,
      "enjoyed": 1546,
      "hot": 1547,
      "brit": 1548,
      "bal": 1549,
      "thinking": 1550,
      "chang": 1551,
      "sw": 1552,
      "believable": 1553,
      "decent": 1554,
      ".)": 1555,
      "roll": 1556,
      "stories": 1557,
      "ham": 1558,
      "pay": 1559,
      "major": 1560,
      "exact": 1561,
      "predict": 1562,
      "obviously": 1563,
      "vol": 1564,
      "incredi": 1565,
      "brother": 1566,
      "figure": 1567,
      "killed": 1568,
      "weak": 1569,
      "rent": 1570,
      "leav": 1571,
      "graph": 1572,
      "fron": 1573,
      "hilar": 1574,
      "musical": 1575,
      "feeling": 1576,
      "voice": 1577,
      "law": 1578,
      "matter": 1579,
      "mc": 1580,
      "cult": 1581,
      "ination": 1582,
      "aren": 1583,
      "anger": 1584,
      "looked": 1585,
      "tail": 1586,
      "iculous": 1587,
      "anyway": 1588,
      "check": 1589,
      "cinemato": 1590,
      "hus": 1591,
      "pose": 1592,
      "paul": 1593,
      "roles": 1594,
      "appro": 1595,
      "mart": 1596,
      "oper": 1597,
      "taking": 1598,
      "four": 1599,
      "told": 1600,
      "order": 1601,
      "stud": 1602,
      "heard": 1603,
      "gn": 1604,
      "var": 1605,
      "took": 1606,
      "myself": 1607,
      "highly": 1608,
      "umb": 1609,
      "bring": 1610,
      "ys": 1611,
      "move": 1612,
      "fut": 1613,
      "tele": 1614,
      "james": 1615,
      "leave": 1616,
      "ago": 1617,
      "says": 1618,
      "stra": 1619,
      "strange": 1620,
      "bers": 1621,
      "lou": 1622,
      "jok": 1623,
      "stop": 1624,
      "score": 1625,
      "desc": 1626,
      "ridiculous": 1627,
      "recent": 1628,
      "alone": 1629,
      "cannot": 1630,
      "explain": 1631,
      "ail": 1632,
      "bab": 1633,
      "hell": 1634,
      "living": 1635,
      "avo": 1636,
      "opin": 1637,
      "involved": 1638,
      "rated": 1639,
      "cool": 1640,
      "particularly": 1641,
      "??": 1642,
      "free": 1643,
      "sle": 1644,
      "tre": 1645,
      "inst": 1646,
      "makers": 1647,
      "polit": 1648,
      "country": 1649,
      "husband": 1650,
      "uses": 1651,
      "shock": 1652,
      "resul": 1653,
      "dev": 1654,
      "dest": 1655,
      "ints": 1656,
      "happened": 1657,
      "honest": 1658,
      "extremely": 1659,
      "ery": 1660,
      "sav": 1661,
      "antly": 1662,
      "lan": 1663,
      "happens": 1664,
      "jap": 1665,
      "res": 1666,
      "astic": 1667,
      "doub": 1668,
      "violence": 1669,
      "dle": 1670,
      "ished": 1671,
      "david": 1672,
      "experience": 1673,
      "forget": 1674,
      "turned": 1675,
      "ker": 1676,
      "change": 1677,
      "itive": 1678,
      "ards": 1679,
      "pal": 1680,
      "thor": 1681,
      "whe": 1682,
      "happy": 1683,
      "fire": 1684,
      "jud": 1685,
      "treat": 1686,
      "chance": 1687,
      "wouldn": 1688,
      "bat": 1689,
      "moder": 1690,
      "chard": 1691,
      "cheap": 1692,
      "hilarious": 1693,
      "japan": 1694,
      "stree": 1695,
      "ared": 1696,
      "simple": 1697,
      "sym": 1698,
      "expected": 1699,
      "season": 1700,
      "quick": 1701,
      "tract": 1702,
      "urb": 1703,
      "pleas": 1704,
      "annoying": 1705,
      "group": 1706,
      "sn": 1707,
      "english": 1708,
      "wit": 1709,
      "deep": 1710,
      "including": 1711,
      "richard": 1712,
      "dog": 1713,
      "please": 1714,
      "frank": 1715,
      "local": 1716,
      "gore": 1717,
      "develop": 1718,
      "career": 1719,
      "usually": 1720,
      "natur": 1721,
      "number": 1722,
      "save": 1723,
      "hen": 1724,
      "mist": 1725,
      "earth": 1726,
      "abo": 1727,
      "fast": 1728,
      "near": 1729,
      "whose": 1730,
      "similar": 1731,
      "beat": 1732,
      "rench": 1733,
      "198": 1734,
      "memor": 1735,
      "illiam": 1736,
      "dro": 1737,
      "ky": 1738,
      "cost": 1739,
      "ances": 1740,
      "shots": 1741,
      "words": 1742,
      "zy": 1743,
      "sequel": 1744,
      "wes": 1745,
      "box": 1746,
      "ational": 1747,
      "yourself": 1748,
      "huge": 1749,
      "ret": 1750,
      "rip": 1751,
      "opening": 1752,
      "cat": 1753,
      "running": 1754,
      "photo": 1755,
      "...<": 1756,
      "stru": 1757,
      "hours": 1758,
      "ied": 1759,
      "ax": 1760,
      "apart": 1761,
      "pped": 1762,
      "taken": 1763,
      "opinion": 1764,
      "fur": 1765,
      "sen": 1766,
      "released": 1767,
      "seriously": 1768,
      "across": 1769,
      "relationship": 1770,
      "lie": 1771,
      "lik": 1772,
      "clear": 1773,
      "ake": 1774,
      "sch": 1775,
      "exactly": 1776,
      "exist": 1777,
      "scary": 1778,
      "itting": 1779,
      "realistic": 1780,
      "episod": 1781,
      "cinematography": 1782,
      "modern": 1783,
      "mee": 1784,
      "hear": 1785,
      "shown": 1786,
      "ral": 1787,
      "plic": 1788,
      "wards": 1789,
      "20": 1790,
      "eye": 1791,
      "middle": 1792,
      "respect": 1793,
      "jokes": 1794,
      "somewhat": 1795,
      "ili": 1796,
      "secre": 1797,
      "ung": 1798,
      "hom": 1799,
      "robert": 1800,
      "started": 1801,
      "dom": 1802,
      "reality": 1803,
      "learn": 1804,
      "gold": 1805,
      "plac": 1806,
      "finds": 1807,
      "appears": 1808,
      "typical": 1809,
      "197": 1810,
      "important": 1811,
      "william": 1812,
      "saying": 1813,
      "build": 1814,
      "possi": 1815,
      "publ": 1816,
      "sam": 1817,
      "comment": 1818,
      "lit": 1819,
      "team": 1820,
      "pres": 1821,
      "mostly": 1822,
      "!!!!": 1823,
      "straight": 1824,
      "episodes": 1825,
      "gan": 1826,
      "enty": 1827,
      "disappointed": 1828,
      "odd": 1829,
      "stick": 1830,
      "due": 1831,
      "199": 1832,
      "appre": 1833,
      "single": 1834,
      "villain": 1835,
      "tle": 1836,
      "talking": 1837,
      "sign": 1838,
      "necess": 1839,
      "yor": 1840,
      "ref": 1841,
      "ls": 1842,
      "match": 1843,
      "roy": 1844,
      "giving": 1845,
      "future": 1846,
      "rap": 1847,
      "supporting": 1848,
      "five": 1849,
      "oo": 1850,
      "ina": 1851,
      "bey": 1852,
      "among": 1853,
      "compare": 1854,
      "pac": 1855,
      "remind": 1856,
      "ator": 1857,
      "female": 1858,
      "uro": 1859,
      "anna": 1860,
      "iety": 1861,
      "comic": 1862,
      "predictable": 1863,
      "british": 1864,
      "ju": 1865,
      "romantic": 1866,
      "ield": 1867,
      "documentary": 1868,
      "bill": 1869,
      "camp": 1870,
      "sold": 1871,
      "batt": 1872,
      "talk": 1873,
      "apparently": 1874,
      "creep": 1875,
      "suspense": 1876,
      "front": 1877,
      "hi": 1878,
      "points": 1879,
      "equ": 1880,
      "grand": 1881,
      "ken": 1882,
      "utter": 1883,
      "bot": 1884,
      "prov": 1885,
      "famous": 1886,
      "thriller": 1887,
      "ask": 1888,
      "space": 1889,
      "!\"": 1890,
      "events": 1891,
      "falls": 1892,
      "knew": 1893,
      "ford": 1894,
      "shi": 1895,
      "attention": 1896,
      "diff": 1897,
      "stage": 1898,
      "moving": 1899,
      "atmo": 1900,
      "sets": 1901,
      "popul": 1902,
      "basically": 1903,
      "television": 1904,
      "songs": 1905,
      "atmosp": 1906,
      "ba": 1907,
      "dialog": 1908,
      "avoid": 1909,
      "flo": 1910,
      "tar": 1911,
      "detail": 1912,
      "tells": 1913,
      "lady": 1914,
      "ze": 1915,
      "ines": 1916,
      "mary": 1917,
      "ump": 1918,
      "chris": 1919,
      "hood": 1920,
      "train": 1921,
      "easily": 1922,
      "gang": 1923,
      "erial": 1924,
      "clearly": 1925,
      "rad": 1926,
      "eless": 1927,
      "ctive": 1928,
      "cru": 1929,
      "joe": 1930,
      "knows": 1931,
      "suck": 1932,
      "sequence": 1933,
      "problems": 1934,
      "intellig": 1935,
      "theat": 1936,
      "ony": 1937,
      "acy": 1938,
      "post": 1939,
      "upon": 1940,
      "oscar": 1941,
      "ently": 1942,
      "aver": 1943,
      "ana": 1944,
      "appreci": 1945,
      "pping": 1946,
      "deed": 1947,
      "entertainment": 1948,
      "thetic": 1949,
      "loc": 1950,
      "attack": 1951,
      "french": 1952,
      "theater": 1953,
      "george": 1954,
      "effort": 1955,
      "named": 1956,
      "ined": 1957,
      "twist": 1958,
      "silly": 1959,
      "throw": 1960,
      "sexual": 1961,
      "question": 1962,
      "hate": 1963,
      "lim": 1964,
      "unlike": 1965,
      "material": 1966,
      "difficul": 1967,
      "state": 1968,
      "ability": 1969,
      "afr": 1970,
      "usion": 1971,
      "tale": 1972,
      "fest": 1973,
      "adap": 1974,
      "ures": 1975,
      "ged": 1976,
      "ultim": 1977,
      "sequences": 1978,
      "da": 1979,
      "working": 1980,
      "ised": 1981,
      "met": 1982,
      "mystery": 1983,
      "prise": 1984,
      "period": 1985,
      "doubt": 1986,
      "wait": 1987,
      "rob": 1988,
      "const": 1989,
      "previous": 1990,
      "york": 1991,
      "narr": 1992,
      "drag": 1993,
      "needs": 1994,
      "beyond": 1995,
      "search": 1996,
      "claim": 1997,
      "ost": 1998,
      "trou": 1999,
      "focus": 2000,
      "enjoyable": 2001,
      "easy": 2002,
      "lon": 2003,
      "mel": 2004,
      "peter": 2005,
      "water": 2006,
      "prin": 2007,
      "intro": 2008,
      "subject": 2009,
      "studi": 2010,
      "cident": 2011,
      "advent": 2012,
      "kept": 2013,
      "carto": 2014,
      "ott": 2015,
      "port": 2016,
      "message": 2017,
      "asy": 2018,
      "nearly": 2019,
      "slight": 2020,
      "app": 2021,
      "actual": 2022,
      "flaw": 2023,
      "whether": 2024,
      "public": 2025,
      "ension": 2026,
      "setting": 2027,
      "sister": 2028,
      "ica": 2029,
      "soc": 2030,
      "potent": 2031,
      "telling": 2032,
      "bes": 2033,
      "within": 2034,
      "count": 2035,
      "dden": 2036,
      "jim": 2037,
      "clim": 2038,
      "net": 2039,
      "flash": 2040,
      "above": 2041,
      "lat": 2042,
      "herself": 2043,
      "andy": 2044,
      "lies": 2045,
      "concer": 2046,
      "personal": 2047,
      "theme": 2048,
      "iel": 2049,
      "western": 2050,
      "jer": 2051,
      "ses": 2052,
      "pet": 2053,
      "dramatic": 2054,
      "fly": 2055,
      "lots": 2056,
      "storyline": 2057,
      "arely": 2058,
      "aught": 2059,
      "truth": 2060,
      "ceed": 2061,
      "inno": 2062,
      "feels": 2063,
      "parents": 2064,
      "rich": 2065,
      "drug": 2066,
      "capture": 2067,
      "release": 2068,
      "baby": 2069,
      "dull": 2070,
      "bunch": 2071,
      "kills": 2072,
      "****": 2073,
      "sugg": 2074,
      "gone": 2075,
      "mise": 2076,
      "50": 2077,
      "surprised": 2078,
      "path": 2079,
      "reve": 2080,
      "haven": 2081,
      "begins": 2082,
      "round": 2083,
      "issu": 2084,
      "?<": 2085,
      "sun": 2086,
      "comments": 2087,
      "difficult": 2088,
      "agree": 2089,
      "shoo": 2090,
      "animation": 2091,
      "bs": 2092,
      "third": 2093,
      "elements": 2094,
      "fas": 2095,
      "forward": 2096,
      "psycho": 2097,
      "note": 2098,
      "paris": 2099,
      "soundtrack": 2100,
      "bil": 2101,
      "visual": 2102,
      "sorry": 2103,
      "somehow": 2104,
      "large": 2105,
      "thy": 2106,
      "viewers": 2107,
      "tried": 2108,
      "pts": 2109,
      "meaning": 2110,
      "lame": 2111,
      "fantastic": 2112,
      "jane": 2113,
      "ening": 2114,
      "mix": 2115,
      "sudden": 2116,
      "means": 2117,
      "viewing": 2118,
      "buy": 2119,
      "nature": 2120,
      "conne": 2121,
      "pathetic": 2122,
      "victim": 2123,
      "contain": 2124,
      "rown": 2125,
      "!!!": 2126,
      "bol": 2127,
      "catch": 2128,
      "rit": 2129,
      "repe": 2130,
      "contro": 2131,
      "profess": 2132,
      "brain": 2133,
      "writers": 2134,
      "general": 2135,
      "30": 2136,
      "bul": 2137,
      "zz": 2138,
      "',": 2139,
      "tori": 2140,
      "filmed": 2141,
      "decided": 2142,
      "express": 2143,
      "minute": 2144,
      "leads": 2145,
      "vamp": 2146,
      "ered": 2147,
      "ution": 2148,
      "mach": 2149,
      "showing": 2150,
      "street": 2151,
      "indeed": 2152,
      "editing": 2153,
      "iment": 2154,
      "zombie": 2155,
      "lier": 2156,
      "crime": 2157,
      "fict": 2158,
      "flu": 2159,
      "brought": 2160,
      "heav": 2161,
      "ously": 2162,
      "ga": 2163,
      "grow": 2164,
      "exe": 2165,
      "ii": 2166,
      "resp": 2167,
      "acted": 2168,
      "disney": 2169,
      "japanese": 2170,
      "hur": 2171,
      "greatest": 2172,
      "deliver": 2173,
      "dance": 2174,
      "kick": 2175,
      "liter": 2176,
      "business": 2177,
      "weird": 2178,
      "secret": 2179,
      "atmosphere": 2180,
      "imagine": 2181,
      "!)": 2182,
      "hun": 2183,
      "rate": 2184,
      "accept": 2185,
      "appeal": 2186,
      "natural": 2187,
      "rus": 2188,
      "week": 2189,
      "lect": 2190,
      "ury": 2191,
      "shame": 2192,
      "eventually": 2193,
      "possibly": 2194,
      "gest": 2195,
      "pure": 2196,
      "medi": 2197,
      "accent": 2198,
      "ially": 2199,
      "demon": 2200,
      "particular": 2201,
      "convincing": 2202,
      "lly": 2203,
      "poorly": 2204,
      "ular": 2205,
      "reviews": 2206,
      "serv": 2207,
      "leading": 2208,
      "standing": 2209,
      "descri": 2210,
      "aust": 2211,
      "fit": 2212,
      "fred": 2213,
      "okay": 2214,
      "berg": 2215,
      "strug": 2216,
      "ights": 2217,
      "average": 2218,
      "ering": 2219,
      "venge": 2220,
      "introdu": 2221,
      "america": 2222,
      "whatever": 2223,
      "ray": 2224,
      "unity": 2225,
      "thank": 2226,
      "write": 2227,
      "emotional": 2228,
      "field": 2229,
      "ives": 2230,
      "ched": 2231,
      "db": 2232,
      "revol": 2233,
      "otic": 2234,
      "euro": 2235,
      "pen": 2236,
      "ior": 2237,
      "teach": 2238,
      "exper": 2239,
      "needed": 2240,
      "stun": 2241,
      "surprise": 2242,
      "casting": 2243,
      "luck": 2244,
      "sick": 2245,
      "ghost": 2246,
      "angel": 2247,
      "scream": 2248,
      "aid": 2249,
      "reading": 2250,
      "aging": 2251,
      "?\"": 2252,
      "ram": 2253,
      "scott": 2254,
      "background": 2255,
      "chees": 2256,
      "ban": 2257,
      "effective": 2258,
      "wall": 2259,
      "killing": 2260,
      "romance": 2261,
      "spirit": 2262,
      "imdb": 2263,
      "screenplay": 2264,
      "ilo": 2265,
      "premise": 2266,
      "fresh": 2267,
      "logical": 2268,
      "cons": 2269,
      "rific": 2270,
      "meets": 2271,
      "forced": 2272,
      "boys": 2273,
      "concl": 2274,
      "uck": 2275,
      "badly": 2276,
      "interested": 2277,
      "vampire": 2278,
      "emotion": 2279,
      "sleep": 2280,
      "flat": 2281,
      "ffer": 2282,
      "mentioned": 2283,
      "ran": 2284,
      "total": 2285,
      "unless": 2286,
      "hair": 2287,
      "doctor": 2288,
      "gotten": 2289,
      "embar": 2290,
      "sweet": 2291,
      "further": 2292,
      "han": 2293,
      "jour": 2294,
      "meet": 2295,
      "reco": 2296,
      "design": 2297,
      "situation": 2298,
      "fasc": 2299,
      "stal": 2300,
      "adv": 2301,
      "trad": 2302,
      "dumb": 2303,
      "sal": 2304,
      "refer": 2305,
      "became": 2306,
      "len": 2307,
      "worked": 2308,
      "directors": 2309,
      "ging": 2310,
      "gay": 2311,
      "sed": 2312,
      "amoun": 2313,
      "trash": 2314,
      "leaves": 2315,
      "'.": 2316,
      "rede": 2317,
      "ko": 2318,
      "comb": 2319,
      "bored": 2320,
      "credits": 2321,
      "rac": 2322,
      "fran": 2323,
      "society": 2324,
      "fantasy": 2325,
      "unique": 2326,
      "nud": 2327,
      "ws": 2328,
      "social": 2329,
      "realize": 2330,
      "superb": 2331,
      "german": 2332,
      "emp": 2333,
      "battle": 2334,
      "popular": 2335,
      "cul": 2336,
      "dress": 2337,
      "fu": 2338,
      "mir": 2339,
      "mass": 2340,
      "wol": 2341,
      "imm": 2342,
      "sens": 2343,
      "older": 2344,
      "crazy": 2345,
      "adapt": 2346,
      "meant": 2347,
      "directing": 2348,
      "earlier": 2349,
      "result": 2350,
      "pan": 2351,
      "whom": 2352,
      "suggest": 2353,
      "80": 2354,
      "vid": 2355,
      "brings": 2356,
      "sounds": 2357,
      "ero": 2358,
      "clever": 2359,
      "beauty": 2360,
      "science": 2361,
      "footage": 2362,
      "test": 2363,
      "plus": 2364,
      "otherwise": 2365,
      "laughs": 2366,
      "hands": 2367,
      "satis": 2368,
      "creepy": 2369,
      "memorable": 2370,
      "ugh": 2371,
      "neg": 2372,
      "prison": 2373,
      "christmas": 2374,
      "discover": 2375,
      "green": 2376,
      "walk": 2377,
      "keeps": 2378,
      "rand": 2379,
      "perfectly": 2380,
      "execut": 2381,
      "stere": 2382,
      "ager": 2383,
      "necessary": 2384,
      "thus": 2385,
      "ron": 2386,
      "san": 2387,
      "stre": 2388,
      "ub": 2389,
      "era": 2390,
      "ising": 2391,
      "towards": 2392,
      "potential": 2393,
      "features": 2394,
      "hill": 2395,
      "ric": 2396,
      "joke": 2397,
      "recogn": 2398,
      "stereo": 2399,
      "broad": 2400,
      "techn": 2401,
      "cers": 2402,
      "suffer": 2403,
      "married": 2404,
      "quickly": 2405,
      "ka": 2406,
      "acts": 2407,
      "cir": 2408,
      "occas": 2409,
      "development": 2410,
      "iliar": 2411,
      "fear": 2412,
      "plenty": 2413,
      "create": 2414,
      "wil": 2415,
      "talented": 2416,
      "cute": 2417,
      "mac": 2418,
      "wers": 2419,
      "attract": 2420,
      "ghts": 2421,
      "desper": 2422,
      "monster": 2423,
      "various": 2424,
      "ti": 2425,
      "ats": 2426,
      "aste": 2427,
      "fairly": 2428,
      "fighting": 2429,
      "py": 2430,
      "familiar": 2431,
      "members": 2432,
      "shad": 2433,
      "offic": 2434,
      "cheesy": 2435,
      "gram": 2436,
      "admit": 2437,
      "/>\"": 2438,
      "cold": 2439,
      "aked": 2440,
      "ki": 2441,
      "sar": 2442,
      "spl": 2443,
      "anti": 2444,
      "board": 2445,
      "girlfriend": 2446,
      "copy": 2447,
      "fat": 2448,
      "powerful": 2449,
      "incredibly": 2450,
      "cro": 2451,
      "store": 2452,
      "sky": 2453,
      "dim": 2454,
      "nudity": 2455,
      "ders": 2456,
      "ient": 2457,
      "cape": 2458,
      "stri": 2459,
      "suit": 2460,
      "193": 2461,
      "positive": 2462,
      "dad": 2463,
      "histor": 2464,
      "wind": 2465,
      "lyn": 2466,
      "logy": 2467,
      "outside": 2468,
      "196": 2469,
      "expecting": 2470,
      "ges": 2471,
      "ague": 2472,
      "scient": 2473,
      "cartoon": 2474,
      "lock": 2475,
      "langu": 2476,
      "?)": 2477,
      "return": 2478,
      "hardly": 2479,
      "trave": 2480,
      "cry": 2481,
      "ians": 2482,
      "wild": 2483,
      "allen": 2484,
      "agon": 2485,
      "portrayed": 2486,
      "political": 2487,
      "rass": 2488,
      "asher": 2489,
      "prim": 2490,
      "masterpiece": 2491,
      "inside": 2492,
      "attempts": 2493,
      "ths": 2494,
      "cei": 2495,
      "ns": 2496,
      "smo": 2497,
      "concept": 2498,
      "reasons": 2499,
      "company": 2500,
      "island": 2501,
      "force": 2502,
      "missing": 2503,
      "color": 2504,
      "embarrass": 2505,
      "vil": 2506,
      "wart": 2507,
      "sem": 2508,
      "lid": 2509,
      "phys": 2510,
      "sadly": 2511,
      "regard": 2512,
      "recently": 2513,
      "ices": 2514,
      "dies": 2515,
      "iet": 2516,
      "deserves": 2517,
      "spoilers": 2518,
      "base": 2519,
      "insp": 2520,
      "trail": 2521,
      "filled": 2522,
      "ula": 2523,
      "missed": 2524,
      "fails": 2525,
      "90": 2526,
      "biz": 2527,
      "elling": 2528,
      "194": 2529,
      "15": 2530,
      "relig": 2531,
      "crew": 2532,
      "ival": 2533,
      "remake": 2534,
      "successful": 2535,
      "dete": 2536,
      "ideas": 2537,
      "doll": 2538,
      "manages": 2539,
      "gress": 2540,
      "filmmakers": 2541,
      "gover": 2542,
      "achie": 2543,
      "reveal": 2544,
      "\")": 2545,
      "danger": 2546,
      "onic": 2547,
      "road": 2548,
      "rote": 2549,
      "recor": 2550,
      "accur": 2551,
      "office": 2552,
      "table": 2553,
      "project": 2554,
      "195": 2555,
      "produced": 2556,
      "wrote": 2557,
      "intri": 2558,
      "itted": 2559,
      "slasher": 2560,
      "ded": 2561,
      "wel": 2562,
      "apped": 2563,
      "survi": 2564,
      "waiting": 2565,
      "amount": 2566,
      "(\"": 2567,
      "wed": 2568,
      "chase": 2569,
      "sell": 2570,
      "following": 2571,
      "credit": 2572,
      "national": 2573,
      "reach": 2574,
      "brief": 2575,
      "former": 2576,
      "caught": 2577,
      "za": 2578,
      "immedi": 2579,
      "subtle": 2580,
      "ius": 2581,
      "rain": 2582,
      "rup": 2583,
      "accident": 2584,
      "cted": 2585,
      "wasted": 2586,
      "passion": 2587,
      "compared": 2588,
      "ships": 2589,
      "maker": 2590,
      "glad": 2591,
      "invest": 2592,
      "brothers": 2593,
      "scare": 2594,
      "common": 2595,
      "considering": 2596,
      "fash": 2597,
      "west": 2598,
      "rot": 2599,
      "slightly": 2600,
      "europe": 2601,
      "kar": 2602,
      "mou": 2603,
      "door": 2604,
      "cross": 2605,
      "mere": 2606,
      "sess": 2607,
      "tension": 2608,
      "escape": 2609,
      "bru": 2610,
      "faith": 2611,
      "ordin": 2612,
      "wash": 2613,
      "def": 2614,
      "delight": 2615,
      "created": 2616,
      "pace": 2617,
      "arre": 2618,
      "moves": 2619,
      "mes": 2620,
      "witch": 2621,
      "esome": 2622,
      "incredible": 2623,
      "approach": 2624,
      "hid": 2625,
      "solid": 2626,
      "compe": 2627,
      "smith": 2628,
      "iff": 2629,
      "century": 2630,
      "complex": 2631,
      "gor": 2632,
      "funni": 2633,
      "worthy": 2634,
      "revenge": 2635,
      "neither": 2636,
      "party": 2637,
      "pointless": 2638,
      "intelligent": 2639,
      "sand": 2640,
      "tough": 2641,
      "disturb": 2642,
      "manner": 2643,
      "actions": 2644,
      "decides": 2645,
      "ai": 2646,
      "bility": 2647,
      "violent": 2648,
      "culture": 2649,
      "entirely": 2650,
      "exciting": 2651,
      "dancing": 2652,
      "impressive": 2653,
      "tone": 2654,
      "sees": 2655,
      "critic": 2656,
      "value": 2657,
      "cause": 2658,
      "pack": 2659,
      "arri": 2660,
      "bizarre": 2661,
      "zombies": 2662,
      "language": 2663,
      "alex": 2664,
      "extra": 2665,
      "choice": 2666,
      "magic": 2667,
      "dar": 2668,
      "nic": 2669,
      "requ": 2670,
      "comput": 2671,
      "planet": 2672,
      "heavy": 2673,
      "hang": 2674,
      "lab": 2675,
      "lover": 2676,
      "terri": 2677,
      "singing": 2678,
      "shooting": 2679,
      "itation": 2680,
      "chur": 2681,
      "college": 2682,
      "adventure": 2683,
      "date": 2684,
      "terror": 2685,
      "tony": 2686,
      "ultimately": 2687,
      "trouble": 2688,
      "contri": 2689,
      "biggest": 2690,
      "laughing": 2691,
      "runs": 2692,
      "suddenly": 2693,
      "wing": 2694,
      "thur": 2695,
      "proper": 2696,
      "spent": 2697,
      "spot": 2698,
      "depth": 2699,
      "ensive": 2700,
      "presented": 2701,
      "annel": 2702,
      "taste": 2703,
      "brut": 2704,
      "genu": 2705,
      "six": 2706,
      "adult": 2707,
      "gory": 2708,
      "bling": 2709,
      "books": 2710,
      "studio": 2711,
      "control": 2712,
      "enn": 2713,
      "lets": 2714,
      "died": 2715,
      "basic": 2716,
      "favour": 2717,
      "involving": 2718,
      "cam": 2719,
      "crow": 2720,
      "izing": 2721,
      "steve": 2722,
      "animated": 2723,
      "situations": 2724,
      "sion": 2725,
      "ella": 2726,
      "appreciate": 2727,
      "channel": 2728,
      "younger": 2729,
      "types": 2730,
      "continu": 2731,
      "alien": 2732,
      "genuine": 2733,
      "gent": 2734,
      "ults": 2735,
      "grade": 2736,
      "legend": 2737,
      "aven": 2738,
      "bon": 2739,
      "lam": 2740,
      "stan": 2741,
      "born": 2742,
      "italian": 2743,
      "fashion": 2744,
      "pieces": 2745,
      "depend": 2746,
      "spend": 2747,
      "thanks": 2748,
      "finish": 2749,
      "exception": 2750,
      "redeem": 2751,
      "gle": 2752,
      "opport": 2753,
      "awesome": 2754,
      "failed": 2755,
      "changed": 2756,
      "hall": 2757,
      "ened": 2758,
      "million": 2759,
      "aside": 2760,
      "complain": 2761,
      "pract": 2762,
      "portrayal": 2763,
      "psych": 2764,
      "ener": 2765,
      "ateur": 2766,
      "fascin": 2767,
      "uc": 2768,
      "hey": 2769,
      "impossible": 2770,
      "normal": 2771,
      "drive": 2772,
      "loud": 2773,
      "amateur": 2774,
      "ples": 2775,
      "criminal": 2776,
      "bust": 2777,
      "ises": 2778,
      "remark": 2779,
      "ites": 2780,
      "amusing": 2781,
      "depress": 2782,
      "contr": 2783,
      "prove": 2784,
      "turning": 2785,
      "bomb": 2786,
      "dir": 2787,
      "dem": 2788,
      "walking": 2789,
      "pictures": 2790,
      "south": 2791,
      "lor": 2792,
      "andre": 2793,
      "producers": 2794,
      "nom": 2795,
      "shar": 2796,
      "stewart": 2797,
      "trip": 2798,
      "starring": 2799,
      "11": 2800,
      "answer": 2801,
      "mistry": 2802,
      "carry": 2803,
      "govern": 2804,
      "barely": 2805,
      "adam": 2806,
      "grad": 2807,
      "showed": 2808,
      "developed": 2809,
      "iss": 2810,
      "aster": 2811,
      "bles": 2812,
      "chemistry": 2813,
      "purpose": 2814,
      "fiction": 2815,
      "iers": 2816,
      "rog": 2817,
      "program": 2818,
      "core": 2819,
      "milit": 2820,
      "jef": 2821,
      "assu": 2822,
      "stone": 2823,
      "neigh": 2824,
      "fox": 2825,
      "marri": 2826,
      "appearance": 2827,
      "london": 2828,
      "bage": 2829,
      "iced": 2830,
      "leaving": 2831,
      "bond": 2832,
      "squ": 2833,
      "ald": 2834,
      "aper": 2835,
      "follows": 2836,
      "recommended": 2837,
      "conclusion": 2838,
      "wolf": 2839,
      "disturbing": 2840,
      "smart": 2841,
      "author": 2842,
      "weren": 2843,
      "decide": 2844,
      "considered": 2845,
      "inspired": 2846,
      "aus": 2847,
      "iny": 2848,
      "pop": 2849,
      "bother": 2850,
      "consist": 2851,
      "random": 2852,
      "rick": 2853,
      "standard": 2854,
      "likes": 2855,
      "ining": 2856,
      "ilt": 2857,
      "fool": 2858,
      "100": 2859,
      "formation": 2860,
      "literally": 2861,
      "cell": 2862,
      "gas": 2863,
      "yed": 2864,
      "chan": 2865,
      "mood": 2866,
      "boss": 2867,
      "christian": 2868,
      "shadow": 2869,
      "rema": 2870,
      "bear": 2871,
      "charming": 2872,
      "mental": 2873,
      "club": 2874,
      "longer": 2875,
      "added": 2876,
      "audiences": 2877,
      "honestly": 2878,
      "kes": 2879,
      "sters": 2880,
      "surprisingly": 2881,
      "ison": 2882,
      "seg": 2883,
      "load": 2884,
      "grant": 2885,
      "grace": 2886,
      "fell": 2887,
      "somewhere": 2888,
      "akes": 2889,
      "minor": 2890,
      "cliche": 2891,
      "mysterious": 2892,
      "utterly": 2893,
      "innocent": 2894,
      "\".<": 2895,
      "blow": 2896,
      "obsess": 2897,
      "curi": 2898,
      "sof": 2899,
      "ican": 2900,
      "essent": 2901,
      "justice": 2902,
      "generally": 2903,
      "ceived": 2904,
      "detective": 2905,
      "nu": 2906,
      "rare": 2907,
      "haun": 2908,
      "counter": 2909,
      "values": 2910,
      "festival": 2911,
      "lay": 2912,
      "leng": 2913,
      "tun": 2914,
      "threat": 2915,
      "insul": 2916,
      "moved": 2917,
      "avail": 2918,
      "immediately": 2919,
      "70": 2920,
      "bought": 2921,
      "anth": 2922,
      "nobody": 2923,
      "depict": 2924,
      "notice": 2925,
      "plane": 2926,
      "indust": 2927,
      "yeah": 2928,
      "fake": 2929,
      "lord": 2930,
      "nast": 2931,
      "genius": 2932,
      "appeared": 2933,
      "tend": 2934,
      "wid": 2935,
      "enter": 2936,
      "belief": 2937,
      "drawn": 2938,
      "costum": 2939,
      "adaptation": 2940,
      "computer": 2941,
      "wis": 2942,
      "alive": 2943,
      "sey": 2944,
      "motion": 2945,
      "climax": 2946,
      "mm": 2947,
      "mare": 2948,
      "minis": 2949,
      "moun": 2950,
      "thin": 2951,
      "shoot": 2952,
      "harry": 2953,
      "questions": 2954,
      "gust": 2955,
      "jones": 2956,
      "jump": 2957,
      "arily": 2958,
      "absur": 2959,
      "garbage": 2960,
      "intrigu": 2961,
      "dick": 2962,
      "roo": 2963,
      "prop": 2964,
      "feat": 2965,
      "award": 2966,
      "stunning": 2967,
      "journey": 2968,
      "ya": 2969,
      "init": 2970,
      "knowing": 2971,
      "respons": 2972,
      "military": 2973,
      "edge": 2974,
      "noir": 2975,
      "wow": 2976,
      "humour": 2977,
      "mission": 2978,
      "nie": 2979,
      "sitting": 2980,
      "moon": 2981,
      "producer": 2982,
      "dreams": 2983,
      "likable": 2984,
      "ds": 2985,
      "verse": 2986,
      "pects": 2987,
      "thinks": 2988,
      "fal": 2989,
      "itor": 2990,
      "rect": 2991,
      "personally": 2992,
      "images": 2993,
      "occur": 2994,
      "sher": 2995,
      "tes": 2996,
      "aspect": 2997,
      "nowhere": 2998,
      "melo": 2999,
      "blue": 3000,
      "spec": 3001,
      "ization": 3002,
      "moral": 3003,
      "impression": 3004,
      "marriage": 3005,
      "push": 3006,
      "thom": 3007,
      "soul": 3008,
      "ordinary": 3009,
      "laughter": 3010,
      "woods": 3011,
      "touching": 3012,
      "witness": 3013,
      "bottom": 3014,
      "40": 3015,
      "ito": 3016,
      "themes": 3017,
      "issues": 3018,
      "professional": 3019,
      "jes": 3020,
      "charlie": 3021,
      "steal": 3022,
      "succeed": 3023,
      "equally": 3024,
      "roc": 3025,
      "kelly": 3026,
      "suspect": 3027,
      "trust": 3028,
      "jean": 3029,
      "satisf": 3030,
      "bir": 3031,
      "dor": 3032,
      "names": 3033,
      "appropri": 3034,
      "bod": 3035,
      "army": 3036,
      "loves": 3037,
      "terms": 3038,
      "unbelievable": 3039,
      "managed": 3040,
      "gry": 3041,
      "pil": 3042,
      "orts": 3043,
      "phy": 3044,
      "pair": 3045,
      "sexy": 3046,
      "investig": 3047,
      "loy": 3048,
      "charles": 3049,
      "likely": 3050,
      "places": 3051,
      "confl": 3052,
      "intent": 3053,
      "bled": 3054,
      "absurd": 3055,
      "naked": 3056,
      "wide": 3057,
      "beha": 3058,
      "termin": 3059,
      "***": 3060,
      "topher": 3061,
      "church": 3062,
      "oli": 3063,
      "zero": 3064,
      "watchable": 3065,
      "syste": 3066,
      "fellow": 3067,
      "billy": 3068,
      "13": 3069,
      "mild": 3070,
      "arthur": 3071,
      "cock": 3072,
      "serial": 3073,
      "izes": 3074,
      "batman": 3075,
      "terrific": 3076,
      "outstanding": 3077,
      "charm": 3078,
      "laughable": 3079,
      "shak": 3080,
      "ride": 3081,
      "enced": 3082,
      "chin": 3083,
      "cks": 3084,
      "crack": 3085,
      "lovely": 3086,
      "position": 3087,
      "comedies": 3088,
      "nightmare": 3089,
      "twists": 3090,
      "destroy": 3091,
      "soldiers": 3092,
      "attractive": 3093,
      "inspir": 3094,
      "bob": 3095,
      "disco": 3096,
      "central": 3097,
      "mistake": 3098,
      "remains": 3099,
      "available": 3100,
      "gag": 3101,
      "thes": 3102,
      "trick": 3103,
      "ires": 3104,
      "excuse": 3105,
      "beautifully": 3106,
      "animals": 3107,
      "queen": 3108,
      "flow": 3109,
      "brid": 3110,
      "loss": 3111,
      "univers": 3112,
      "spoiler": 3113,
      "government": 3114,
      "ano": 3115,
      "contem": 3116,
      "cinematic": 3117,
      "bruce": 3118,
      "bits": 3119,
      "bell": 3120,
      "cele": 3121,
      "exp": 3122,
      "dig": 3123,
      "slowly": 3124,
      "indian": 3125,
      "gain": 3126,
      "anda": 3127,
      "torture": 3128,
      "mont": 3129,
      "disappointing": 3130,
      "lish": 3131,
      "nel": 3132,
      "chick": 3133,
      "filming": 3134,
      "ified": 3135,
      "silent": 3136,
      "painful": 3137,
      "critics": 3138,
      "christopher": 3139,
      "eli": 3140,
      "nick": 3141,
      "inner": 3142,
      "details": 3143,
      "contains": 3144,
      "18": 3145,
      "gri": 3146,
      "gree": 3147,
      "drunk": 3148,
      "devil": 3149,
      "building": 3150,
      "flashback": 3151,
      "costumes": 3152,
      "esh": 3153,
      "ledge": 3154,
      "individ": 3155,
      "changes": 3156,
      "historical": 3157,
      "influ": 3158,
      "brand": 3159,
      "oughly": 3160,
      "offer": 3161,
      "origin": 3162,
      "lighting": 3163,
      "subst": 3164,
      "breath": 3165,
      "bour": 3166,
      "pun": 3167,
      "remain": 3168,
      "loose": 3169,
      "intense": 3170,
      "willing": 3171,
      "commer": 3172,
      "surely": 3173,
      "imagin": 3174,
      "fle": 3175,
      "wy": 3176,
      "onto": 3177,
      "ades": 3178,
      "double": 3179,
      "emotions": 3180,
      "narrative": 3181,
      "thrown": 3182,
      "image": 3183,
      "ured": 3184,
      "forever": 3185,
      "boyfriend": 3186,
      "presence": 3187,
      "inger": 3188,
      "rose": 3189,
      "dow": 3190,
      "aware": 3191,
      "surround": 3192,
      "fright": 3193,
      "mainly": 3194,
      "hotel": 3195,
      "martin": 3196,
      "hurt": 3197,
      "escap": 3198,
      "seven": 3199,
      "idence": 3200,
      "qual": 3201,
      "prote": 3202,
      "inder": 3203,
      "intended": 3204,
      "norm": 3205,
      "magn": 3206,
      "ahead": 3207,
      "addition": 3208,
      "twice": 3209,
      "graphic": 3210,
      "hat": 3211,
      "cher": 3212,
      "ively": 3213,
      "scenery": 3214,
      "medio": 3215,
      "speaking": 3216,
      "hoping": 3217,
      "page": 3218,
      "tired": 3219,
      "arts": 3220,
      "held": 3221,
      "suff": 3222,
      "comfort": 3223,
      "ify": 3224,
      "clean": 3225,
      "photography": 3226,
      "aire": 3227,
      "sight": 3228,
      "ini": 3229,
      "views": 3230,
      "summer": 3231,
      "independ": 3232,
      "erson": 3233,
      "affair": 3234,
      "discus": 3235,
      "element": 3236,
      "constantly": 3237,
      "besides": 3238,
      "everybody": 3239,
      "via": 3240,
      "block": 3241,
      "placed": 3242,
      "neighbor": 3243,
      "ado": 3244,
      "span": 3245,
      "000": 3246,
      "russ": 3247,
      "12": 3248,
      "mult": 3249,
      "zen": 3250,
      "gene": 3251,
      "correct": 3252,
      "isa": 3253,
      "aspects": 3254,
      "hosp": 3255,
      "aa": 3256,
      "dated": 3257,
      "theless": 3258,
      "model": 3259,
      "idi": 3260,
      "boo": 3261,
      "intention": 3262,
      "feelings": 3263,
      "expectations": 3264,
      "opportunity": 3265,
      "bing": 3266,
      "gon": 3267,
      "resem": 3268,
      "commun": 3269,
      "paid": 3270,
      "henry": 3271,
      "stands": 3272,
      "suppose": 3273,
      "compelling": 3274,
      "individual": 3275,
      "hide": 3276,
      "anne": 3277,
      "icide": 3278,
      "lived": 3279,
      "holes": 3280,
      "compl": 3281,
      "pull": 3282,
      "disappointment": 3283,
      "opera": 3284,
      "fascinating": 3285,
      "ku": 3286,
      "pi": 3287,
      "heaven": 3288,
      "canad": 3289,
      "rape": 3290,
      "phone": 3291,
      "titles": 3292,
      "damn": 3293,
      "ston": 3294,
      "grat": 3295,
      "content": 3296,
      "impact": 3297,
      "numbers": 3298,
      "arm": 3299,
      "argu": 3300,
      "park": 3301,
      "kr": 3302,
      "div": 3303,
      "aine": 3304,
      "ante": 3305,
      "progress": 3306,
      "actresses": 3307,
      "celebr": 3308,
      "commercial": 3309,
      "eth": 3310,
      "gorge": 3311,
      "safe": 3312,
      "plots": 3313,
      "include": 3314,
      "birth": 3315,
      "cel": 3316,
      "fish": 3317,
      "mut": 3318,
      "inc": 3319,
      "alan": 3320,
      "vert": 3321,
      "traged": 3322,
      "puts": 3323,
      "confused": 3324,
      "collection": 3325,
      "shakespe": 3326,
      "eat": 3327,
      "tu": 3328,
      "steven": 3329,
      "hasn": 3330,
      "bland": 3331,
      "porn": 3332,
      "flaws": 3333,
      "slo": 3334,
      "prot": 3335,
      "proved": 3336,
      "drink": 3337,
      "giant": 3338,
      "mouth": 3339,
      "pin": 3340,
      "gem": 3341,
      "trag": 3342,
      "decis": 3343,
      "latter": 3344,
      "americans": 3345,
      "creative": 3346,
      "relationships": 3347,
      "system": 3348,
      "proves": 3349,
      "dubb": 3350,
      "warm": 3351,
      "sident": 3352,
      "happening": 3353,
      "supposedly": 3354,
      "lights": 3355,
      "frust": 3356,
      "followed": 3357,
      "students": 3358,
      "protagon": 3359,
      "cup": 3360,
      "cum": 3361,
      "jul": 3362,
      "race": 3363,
      "ests": 3364,
      "ugly": 3365,
      "trailer": 3366,
      "soft": 3367,
      "games": 3368,
      "lose": 3369,
      "artist": 3370,
      "lessly": 3371,
      "putting": 3372,
      "winning": 3373,
      "sant": 3374,
      "ties": 3375,
      "los": 3376,
      "laughed": 3377,
      "jects": 3378,
      "wondering": 3379,
      "murders": 3380,
      "negative": 3381,
      "behavi": 3382,
      "hospital": 3383,
      "dread": 3384,
      "mine": 3385,
      "station": 3386,
      "adults": 3387,
      "crash": 3388,
      "phil": 3389,
      "afraid": 3390,
      "merely": 3391,
      "card": 3392,
      "itude": 3393,
      "bright": 3394,
      "forgotten": 3395,
      "tran": 3396,
      "conve": 3397,
      "warning": 3398,
      "falling": 3399,
      "freak": 3400,
      "student": 3401,
      "nan": 3402,
      "loving": 3403,
      "amed": 3404,
      "estab": 3405,
      "auto": 3406,
      "agent": 3407,
      "igno": 3408,
      "helps": 3409,
      "lacks": 3410,
      "zo": 3411,
      "host": 3412,
      "news": 3413,
      "stein": 3414,
      "difference": 3415,
      "fied": 3416,
      "deserved": 3417,
      "60": 3418,
      "gs": 3419,
      "inated": 3420,
      "asks": 3421,
      "ura": 3422,
      "disgust": 3423,
      "impressed": 3424,
      "faces": 3425,
      "judge": 3426,
      "funniest": 3427,
      "shakespeare": 3428,
      "rout": 3429,
      "resc": 3430,
      "itional": 3431,
      "nasty": 3432,
      "gorgeous": 3433,
      "bird": 3434,
      "food": 3435,
      "emplo": 3436,
      "imagination": 3437,
      "pleasant": 3438,
      "victims": 3439,
      "jeff": 3440,
      "?!": 3441,
      "bum": 3442,
      "bath": 3443,
      "ister": 3444,
      "blind": 3445,
      "finding": 3446,
      "mediocre": 3447,
      "bak": 3448,
      "eight": 3449,
      "tour": 3450,
      "asts": 3451,
      "ands": 3452,
      "brad": 3453,
      "mote": 3454,
      "powers": 3455,
      "seemingly": 3456,
      "standards": 3457,
      "stock": 3458,
      "formula": 3459,
      "compan": 3460,
      "priv": 3461,
      "hack": 3462,
      "jan": 3463,
      "lying": 3464,
      "share": 3465,
      "williams": 3466,
      "jerry": 3467,
      "cab": 3468,
      "information": 3469,
      "cow": 3470,
      "industry": 3471,
      "tragedy": 3472,
      "nal": 3473,
      "rush": 3474,
      "angry": 3475,
      "mex": 3476,
      "aud": 3477,
      "flicks": 3478,
      "delivers": 3479,
      "confusing": 3480,
      "fli": 3481,
      "rey": 3482,
      "chill": 3483,
      "irrit": 3484,
      "soap": 3485,
      "shel": 3486,
      "rage": 3487,
      "punch": 3488,
      "stren": 3489,
      "lif": 3490,
      "area": 3491,
      "speed": 3492,
      "thoroughly": 3493,
      "radio": 3494,
      "occasion": 3495,
      "gal": 3496,
      "ander": 3497,
      "accor": 3498,
      "hook": 3499,
      "mann": 3500,
      "extr": 3501,
      "weap": 3502,
      "cook": 3503,
      "ctions": 3504,
      "spectac": 3505,
      "achieve": 3506,
      "listen": 3507,
      "accurate": 3508,
      "states": 3509,
      "slap": 3510,
      "danny": 3511,
      "seconds": 3512,
      "explained": 3513,
      "uk": 3514,
      "remote": 3515,
      "matic": 3516,
      "breaking": 3517,
      "forgettable": 3518,
      "provides": 3519,
      "pse": 3520,
      "sour": 3521,
      "ww": 3522,
      "aly": 3523,
      "ases": 3524,
      "becoming": 3525,
      "folks": 3526,
      "reminded": 3527,
      "chinese": 3528,
      "streng": 3529,
      "yer": 3530,
      "unexpected": 3531,
      "childhood": 3532,
      "harris": 3533,
      "picked": 3534,
      "remarkable": 3535,
      "multi": 3536,
      "tragic": 3537,
      "bank": 3538,
      "gin": 3539,
      "hs": 3540,
      "uts": 3541,
      "filmmaker": 3542,
      "soci": 3543,
      "gling": 3544,
      "relative": 3545,
      "lake": 3546,
      "cliches": 3547,
      "robin": 3548,
      "mountain": 3549,
      "fif": 3550,
      "jon": 3551,
      "sac": 3552,
      "beth": 3553,
      "fill": 3554,
      "therefore": 3555,
      "anymore": 3556,
      "offers": 3557,
      "glas": 3558,
      "animal": 3559,
      "austral": 3560,
      "ech": 3561,
      "hab": 3562,
      "tie": 3563,
      "itions": 3564,
      "brok": 3565,
      "prefer": 3566,
      ".....": 3567,
      "grave": 3568,
      "adds": 3569,
      "captain": 3570,
      "davis": 3571,
      "stephen": 3572,
      "pleasure": 3573,
      "cused": 3574,
      "wars": 3575,
      "pers": 3576,
      "wee": 3577,
      "agger": 3578,
      "stuck": 3579,
      "heroes": 3580,
      "apartment": 3581,
      "dirty": 3582,
      "hic": 3583,
      "jum": 3584,
      "naz": 3585,
      "text": 3586,
      "chuck": 3587,
      "mob": 3588,
      "tears": 3589,
      "horse": 3590,
      "johnny": 3591,
      "rubb": 3592,
      "allowed": 3593,
      "shocking": 3594,
      "struct": 3595,
      "presents": 3596,
      "soldier": 3597,
      "flying": 3598,
      ".,": 3599,
      "sli": 3600,
      "brian": 3601,
      "explan": 3602,
      "rend": 3603,
      "struggle": 3604,
      "scientist": 3605,
      "rupt": 3606,
      "lind": 3607,
      "aries": 3608,
      "brown": 3609,
      "lia": 3610,
      "sco": 3611,
      "rented": 3612,
      "helped": 3613,
      "clothes": 3614,
      "virt": 3615,
      "theatre": 3616,
      "redeeming": 3617,
      "length": 3618,
      "jason": 3619,
      "chap": 3620,
      "thats": 3621,
      "depart": 3622,
      "pot": 3623,
      "process": 3624,
      "disaster": 3625,
      "ppy": 3626,
      "finished": 3627,
      "castle": 3628,
      "motiv": 3629,
      "possess": 3630,
      "sympath": 3631,
      "describe": 3632,
      "favourite": 3633,
      "andon": 3634,
      "ups": 3635,
      "realism": 3636,
      "buff": 3637,
      "east": 3638,
      "lau": 3639,
      "pra": 3640,
      "oud": 3641,
      "realized": 3642,
      "shouldn": 3643,
      "wooden": 3644,
      "personality": 3645,
      "martial": 3646,
      "repeated": 3647,
      "technical": 3648,
      "physical": 3649,
      "leon": 3650,
      "jose": 3651,
      "pretent": 3652,
      "azy": 3653,
      "heads": 3654,
      "teenage": 3655,
      "deeply": 3656,
      "location": 3657,
      "magnific": 3658,
      "fits": 3659,
      "hay": 3660,
      "ington": 3661,
      "artistic": 3662,
      "wonderfully": 3663,
      "creature": 3664,
      "drop": 3665,
      "fare": 3666,
      "youth": 3667,
      "river": 3668,
      "manage": 3669,
      "began": 3670,
      "engaging": 3671,
      "limited": 3672,
      "drugs": 3673,
      "appropriate": 3674,
      "barbar": 3675,
      "issue": 3676,
      "cate": 3677,
      "convers": 3678,
      "awk": 3679,
      "chester": 3680,
      "hidden": 3681,
      "energy": 3682,
      "fights": 3683,
      "itz": 3684,
      "acade": 3685,
      "suicide": 3686,
      "prince": 3687,
      "machine": 3688,
      "pretentious": 3689,
      "bound": 3690,
      "mic": 3691,
      "convent": 3692,
      "douglas": 3693,
      "originally": 3694,
      "dum": 3695,
      "hitch": 3696,
      "ira": 3697,
      "commentary": 3698,
      "illa": 3699,
      "burn": 3700,
      "wedding": 3701,
      "aton": 3702,
      "asure": 3703,
      "eddie": 3704,
      "uncle": 3705,
      "cali": 3706,
      "desperate": 3707,
      "brutal": 3708,
      "itous": 3709,
      "ape": 3710,
      "bio": 3711,
      "comparis": 3712,
      "apes": 3713,
      "fold": 3714,
      "shop": 3715,
      "continue": 3716,
      "teacher": 3717,
      "normally": 3718,
      ".'": 3719,
      "uous": 3720,
      "asp": 3721,
      "anybody": 3722,
      "viet": 3723,
      "dry": 3724,
      "syn": 3725,
      "skin": 3726,
      "draw": 3727,
      "bid": 3728,
      "hund": 3729,
      "stor": 3730,
      "wearing": 3731,
      "superior": 3732,
      "revolution": 3733,
      "80s": 3734,
      "cable": 3735,
      "ja": 3736,
      "ov": 3737,
      "vac": 3738,
      "thir": 3739,
      "returns": 3740,
      "ifer": 3741,
      "ption": 3742,
      "knowledge": 3743,
      "perform": 3744,
      "humanity": 3745,
      "brook": 3746,
      "apparent": 3747,
      "bian": 3748,
      "cere": 3749,
      "mate": 3750,
      "research": 3751,
      "ency": 3752,
      "stat": 3753,
      "heal": 3754,
      "unusual": 3755,
      "debut": 3756,
      "aff": 3757,
      "civil": 3758,
      "gret": 3759,
      "techno": 3760,
      "stream": 3761,
      "pilot": 3762,
      "cars": 3763,
      "kate": 3764,
      "atter": 3765,
      "unnecessary": 3766,
      "irk": 3767,
      "prec": 3768,
      "bow": 3769,
      "partner": 3770,
      "media": 3771,
      "cuts": 3772,
      "holds": 3773,
      "cage": 3774,
      "rul": 3775,
      "anywhere": 3776,
      "iously": 3777,
      "epic": 3778,
      "price": 3779,
      "smile": 3780,
      "bloody": 3781,
      "twenty": 3782,
      "spective": 3783,
      "includes": 3784,
      "responsible": 3785,
      "apo": 3786,
      "asked": 3787,
      "stink": 3788,
      "vehic": 3789,
      "fet": 3790,
      "desire": 3791,
      "understanding": 3792,
      "paced": 3793,
      "according": 3794,
      "tro": 3795,
      "vive": 3796,
      "els": 3797,
      "max": 3798,
      "philo": 3799,
      "sentiment": 3800,
      "humans": 3801,
      "ladies": 3802,
      "dying": 3803,
      "kin": 3804,
      "thous": 3805,
      "itty": 3806,
      "acqu": 3807,
      "unknown": 3808,
      "abs": 3809,
      "herent": 3810,
      "provide": 3811,
      "nicely": 3812,
      "skip": 3813,
      "intriguing": 3814,
      "conflict": 3815,
      "independent": 3816,
      "dun": 3817,
      "tay": 3818,
      "vy": 3819,
      "vhs": 3820,
      "noticed": 3821,
      "complic": 3822,
      "angle": 3823,
      "capt": 3824,
      "awkward": 3825,
      "gary": 3826,
      "jr": 3827,
      "interpret": 3828,
      "memory": 3829,
      "comedic": 3830,
      "capable": 3831,
      "mixed": 3832,
      "introduced": 3833,
      "fond": 3834,
      "jess": 3835,
      "soever": 3836,
      "cops": 3837,
      "surprising": 3838,
      "hitler": 3839,
      "hated": 3840,
      "nia": 3841,
      "rise": 3842,
      "erous": 3843,
      "resol": 3844,
      "separ": 3845,
      "somebody": 3846,
      "whatsoever": 3847,
      "spring": 3848,
      "player": 3849,
      "strain": 3850,
      "north": 3851,
      "creating": 3852,
      "record": 3853,
      "cgi": 3854,
      "educ": 3855,
      "lied": 3856,
      "aps": 3857,
      "passed": 3858,
      "signific": 3859,
      "reminds": 3860,
      "buster": 3861,
      "rubbish": 3862,
      "dut": 3863,
      "pit": 3864,
      "rarely": 3865,
      "zed": 3866,
      "stret": 3867,
      "chief": 3868,
      "lewis": 3869,
      "/>-": 3870,
      "morgan": 3871,
      "jackson": 3872,
      "constant": 3873,
      ":<": 3874,
      "gam": 3875,
      "lust": 3876,
      "nation": 3877,
      "paper": 3878,
      "von": 3879,
      "zan": 3880,
      "repor": 3881,
      "iron": 3882,
      "sole": 3883,
      "flesh": 3884,
      "community": 3885,
      "england": 3886,
      "religious": 3887,
      "iest": 3888,
      "ico": 3889,
      "kevin": 3890,
      "dee": 3891,
      "charis": 3892,
      "victori": 3893,
      "driving": 3894,
      "nonsense": 3895,
      "guns": 3896,
      "fate": 3897,
      "jay": 3898,
      "lone": 3899,
      "explic": 3900,
      "friendship": 3901,
      "court": 3902,
      "pacing": 3903,
      "intelligence": 3904,
      "broken": 3905,
      "vs": 3906,
      "sea": 3907,
      "lovers": 3908,
      "quiet": 3909,
      "oted": 3910,
      "oppos": 3911,
      "leader": 3912,
      "lacking": 3913,
      "freddy": 3914,
      "lucky": 3915,
      "empty": 3916,
      "ousy": 3917,
      "players": 3918,
      "mature": 3919,
      "calls": 3920,
      "symbol": 3921,
      "european": 3922,
      "accompl": 3923,
      "ipul": 3924,
      ".\"<": 3925,
      "rifying": 3926,
      "intellect": 3927,
      "eating": 3928,
      "hart": 3929,
      "vit": 3930,
      "toward": 3931,
      "ils": 3932,
      "shir": 3933,
      "visit": 3934,
      "superman": 3935,
      "mike": 3936,
      "techni": 3937,
      "growing": 3938,
      "explanation": 3939,
      "hundred": 3940,
      "tight": 3941,
      "vul": 3942,
      "edited": 3943,
      "hadn": 3944,
      "served": 3945,
      "invent": 3946,
      "starting": 3947,
      "relev": 3948,
      "results": 3949,
      "saved": 3950,
      "princi": 3951,
      "santa": 3952,
      "academy": 3953,
      "taylor": 3954,
      "jenn": 3955,
      "lap": 3956,
      "ote": 3957,
      "tex": 3958,
      "organ": 3959,
      "scared": 3960,
      "president": 3961,
      "cris": 3962,
      "simon": 3963,
      "grapher": 3964,
      "discovered": 3965,
      "delightful": 3966,
      "70s": 3967,
      "reaction": 3968,
      "asing": 3969,
      "pless": 3970,
      "affect": 3971,
      "donald": 3972,
      "current": 3973,
      "frequ": 3974,
      "floor": 3975,
      "experiment": 3976,
      "dressed": 3977,
      "mum": 3978,
      "peace": 3979,
      "frame": 3980,
      "blon": 3981,
      "wanting": 3982,
      "courage": 3983,
      "treated": 3984,
      "dangerous": 3985,
      "jesus": 3986,
      ")<": 3987,
      "14": 3988,
      "pup": 3989,
      "rings": 3990,
      "wanna": 3991,
      "robb": 3992,
      "blame": 3993,
      "buck": 3994,
      "keeping": 3995,
      "luke": 3996,
      "included": 3997,
      "domin": 3998,
      "villains": 3999,
      "officer": 4000,
      "russian": 4001,
      "==": 4002,
      "bag": 4003,
      "ike": 4004,
      "below": 4005,
      "whil": 4006,
      "joan": 4007,
      "aves": 4008,
      "kidn": 4009,
      "candy": 4010,
      "market": 4011,
      "glass": 4012,
      "owner": 4013,
      "kinda": 4014,
      "freed": 4015,
      "naturally": 4016,
      "memories": 4017,
      "existence": 4018,
      "sucks": 4019,
      "contrast": 4020,
      "glo": 4021,
      "nes": 4022,
      "send": 4023,
      "represent": 4024,
      "received": 4025,
      "soph": 4026,
      "marie": 4027,
      "knock": 4028,
      "urban": 4029,
      "dimens": 4030,
      "whilst": 4031,
      "nich": 4032,
      "rat": 4033,
      "ene": 4034,
      "forces": 4035,
      "union": 4036,
      "weight": 4037,
      "belong": 4038,
      "hearted": 4039,
      "sympathetic": 4040,
      "satisfying": 4041,
      "spanish": 4042,
      "jennifer": 4043,
      "snow": 4044,
      "iling": 4045,
      "nold": 4046,
      "fection": 4047,
      "proceed": 4048,
      "horri": 4049,
      "months": 4050,
      "corn": 4051,
      "corpor": 4052,
      "heroine": 4053,
      "concerned": 4054,
      "appealing": 4055,
      "circum": 4056,
      "lynch": 4057,
      "featuring": 4058,
      "gross": 4059,
      "kong": 4060,
      "mu": 4061,
      "atra": 4062,
      "keaton": 4063,
      "boat": 4064,
      "serve": 4065,
      "international": 4066,
      "insight": 4067,
      "higher": 4068,
      "singer": 4069,
      "morning": 4070,
      "humorous": 4071,
      "captured": 4072,
      "travel": 4073,
      "competent": 4074,
      "terribly": 4075,
      "magnificent": 4076,
      "cass": 4077,
      "reck": 4078,
      "icate": 4079,
      "dish": 4080,
      "finest": 4081,
      "insane": 4082,
      "context": 4083,
      "buddy": 4084,
      "pulled": 4085,
      "window": 4086,
      "saving": 4087,
      "jimmy": 4088,
      "cash": 4089,
      "kim": 4090,
      "rical": 4091,
      "zel": 4092,
      "moore": 4093,
      "shallow": 4094,
      "werewolf": 4095,
      "bigger": 4096,
      "regular": 4097,
      "miles": 4098,
      "screaming": 4099,
      "labor": 4100,
      "curious": 4101,
      "jam": 4102,
      "eric": 4103,
      "elle": 4104,
      "weal": 4105,
      "constru": 4106,
      "azz": 4107,
      "locations": 4108,
      "psychological": 4109,
      "segment": 4110,
      "abr": 4111,
      "abandon": 4112,
      "marvel": 4113,
      "----": 4114,
      "chore": 4115,
      "numerous": 4116,
      "deserve": 4117,
      "witty": 4118,
      "meeting": 4119,
      "washington": 4120,
      "hits": 4121,
      "chair": 4122,
      "ime": 4123,
      "deals": 4124,
      "clar": 4125,
      "welles": 4126,
      "object": 4127,
      "remembered": 4128,
      "satur": 4129,
      "identity": 4130,
      "unders": 4131,
      "hopes": 4132,
      "instance": 4133,
      "streets": 4134,
      "golden": 4135,
      ");": 4136,
      "junk": 4137,
      "pitch": 4138,
      "brave": 4139,
      "veter": 4140,
      "forts": 4141,
      "parody": 4142,
      "vote": 4143,
      "virgin": 4144,
      "louis": 4145,
      "tarzan": 4146,
      "cruel": 4147,
      "anthony": 4148,
      "gif": 4149,
      "incident": 4150,
      "manipul": 4151,
      "prepare": 4152,
      "finale": 4153,
      "tape": 4154,
      "glor": 4155,
      "corny": 4156,
      "mrs": 4157,
      "target": 4158,
      "traditional": 4159,
      "gentle": 4160,
      "tt": 4161,
      "united": 4162,
      "goof": 4163,
      "plaus": 4164,
      "bog": 4165,
      "sport": 4166,
      "lesson": 4167,
      "monsters": 4168,
      "sake": 4169,
      "related": 4170,
      "sinatra": 4171,
      "reviewers": 4172,
      "dealing": 4173,
      "continues": 4174,
      "connection": 4175,
      "circumst": 4176,
      "nine": 4177,
      "ators": 4178,
      "iled": 4179,
      "ider": 4180,
      "wear": 4181,
      "assist": 4182,
      "opens": 4183,
      "visually": 4184,
      "creates": 4185,
      "failure": 4186,
      "murdered": 4187,
      "village": 4188,
      "allows": 4189,
      "ultimate": 4190,
      "ez": 4191,
      "skills": 4192,
      "tho": 4193,
      "unfunny": 4194,
      "shine": 4195,
      "service": 4196,
      "advice": 4197,
      "thomas": 4198,
      "comfortable": 4199,
      "sche": 4200,
      "format": 4201,
      "deb": 4202,
      "perspective": 4203,
      "thered": 4204,
      "marry": 4205,
      "strict": 4206,
      "center": 4207,
      "ruth": 4208,
      "victor": 4209,
      "gonna": 4210,
      "behavior": 4211,
      "private": 4212,
      "blonde": 4213,
      "mitch": 4214,
      "pity": 4215,
      "liber": 4216,
      "determin": 4217,
      "guard": 4218,
      "survive": 4219,
      "daniel": 4220,
      "african": 4221,
      "gig": 4222,
      "lud": 4223,
      "uitous": 4224,
      "associ": 4225,
      "omen": 4226,
      "preh": 4227,
      "seless": 4228,
      "overly": 4229,
      "fault": 4230,
      "marks": 4231,
      "viewed": 4232,
      "built": 4233,
      "cameo": 4234,
      "seat": 4235,
      "versions": 4236,
      "ivity": 4237,
      "trek": 4238,
      "frankly": 4239,
      "suffering": 4240,
      "gard": 4241,
      "iac": 4242,
      "inct": 4243,
      "albert": 4244,
      "ario": 4245,
      "chain": 4246,
      "unfold": 4247,
      "rival": 4248,
      "code": 4249,
      "whenever": 4250,
      "minim": 4251,
      "porary": 4252,
      "breaks": 4253,
      "admir": 4254,
      "references": 4255,
      "gags": 4256,
      "joseph": 4257,
      "caine": 4258,
      "hip": 4259,
      "ration": 4260,
      "incre": 4261,
      "edy": 4262,
      "ambit": 4263,
      "ishing": 4264,
      "talents": 4265,
      "logic": 4266,
      "crappy": 4267,
      "graphed": 4268,
      "study": 4269,
      "revealed": 4270,
      "!).": 4271,
      "wrest": 4272,
      "erotic": 4273,
      "ching": 4274,
      "ays": 4275,
      "thern": 4276,
      "distr": 4277,
      "print": 4278,
      "satire": 4279,
      "transl": 4280,
      "demonstr": 4281,
      "genuinely": 4282,
      "sharp": 4283,
      "essentially": 4284,
      "strength": 4285,
      "cand": 4286,
      "anic": 4287,
      "plant": 4288,
      "miser": 4289,
      "relief": 4290,
      "naive": 4291,
      "craft": 4292,
      "switch": 4293,
      "emotionally": 4294,
      "gratuitous": 4295,
      "occasionally": 4296,
      "bach": 4297,
      "cil": 4298,
      "grown": 4299,
      "site": 4300,
      "atory": 4301,
      "ilies": 4302,
      "ender": 4303,
      "killers": 4304,
      "meanwhile": 4305,
      "covered": 4306,
      "delivered": 4307,
      "sheriff": 4308,
      "bourne": 4309,
      "cinder": 4310,
      "lum": 4311,
      "cha": 4312,
      "ulous": 4313,
      "frid": 4314,
      "authen": 4315,
      "agers": 4316,
      "foreign": 4317,
      "saur": 4318,
      "decade": 4319,
      "sucked": 4320,
      "dimensional": 4321,
      "hunt": 4322,
      "rie": 4323,
      "tack": 4324,
      "winter": 4325,
      "zard": 4326,
      "regret": 4327,
      "ende": 4328,
      "altern": 4329,
      "stated": 4330,
      "advert": 4331,
      "sett": 4332,
      "blown": 4333,
      "grew": 4334,
      "bringing": 4335,
      "bodies": 4336,
      "discovers": 4337,
      "jar": 4338,
      "nav": 4339,
      "oz": 4340,
      "emer": 4341,
      "attitude": 4342,
      "excite": 4343,
      "excited": 4344,
      "corrupt": 4345,
      "........": 4346,
      "learned": 4347,
      "comparison": 4348,
      "ease": 4349,
      "anci": 4350,
      "loses": 4351,
      "formed": 4352,
      "trade": 4353,
      "sheer": 4354,
      "spell": 4355,
      "rence": 4356,
      "colour": 4357,
      "flashbacks": 4358,
      "decision": 4359,
      "vehicle": 4360,
      "16": 4361,
      "cath": 4362,
      "rant": 4363,
      "reed": 4364,
      "consc": 4365,
      "howard": 4366,
      "guar": 4367,
      "tribut": 4368,
      "woody": 4369,
      "hallo": 4370,
      "craf": 4371,
      "patrick": 4372,
      "__": 4373,
      "cant": 4374,
      "ping": 4375,
      "forms": 4376,
      "heck": 4377,
      "trilo": 4378,
      "proud": 4379,
      "efforts": 4380,
      "germany": 4381,
      "anime": 4382,
      "fairy": 4383,
      "cliched": 4384,
      "document": 4385,
      "rolling": 4386,
      "gangster": 4387,
      "haunting": 4388,
      "spectacular": 4389,
      "cinderella": 4390,
      "ather": 4391,
      "kat": 4392,
      "rous": 4393,
      "unable": 4394,
      "compreh": 4395,
      "matt": 4396,
      "addict": 4397,
      "honor": 4398,
      "vampires": 4399,
      "stereotypes": 4400,
      "religion": 4401,
      "opposite": 4402,
      "wound": 4403,
      "lem": 4404,
      "sean": 4405,
      "wayne": 4406,
      "coherent": 4407,
      "awards": 4408,
      "promise": 4409,
      "promising": 4410,
      "theatrical": 4411,
      "hunter": 4412,
      "practically": 4413,
      "irritating": 4414,
      "choreo": 4415,
      "ication": 4416,
      "quir": 4417,
      "evening": 4418,
      "raw": 4419,
      "stopped": 4420,
      "commit": 4421,
      "colum": 4422,
      "entertained": 4423,
      "brilliantly": 4424,
      "embarrassing": 4425,
      "substance": 4426,
      "rescue": 4427,
      "freedom": 4428,
      "isher": 4429,
      "icated": 4430,
      "noon": 4431,
      "amor": 4432,
      "meth": 4433,
      "endless": 4434,
      "sons": 4435,
      "priest": 4436,
      "majority": 4437,
      "costs": 4438,
      "theaters": 4439,
      "universal": 4440,
      "canadian": 4441,
      "fab": 4442,
      "hes": 4443,
      "mend": 4444,
      "refresh": 4445,
      "envir": 4446,
      "/>*": 4447,
      "whel": 4448,
      "france": 4449,
      "inept": 4450,
      "ached": 4451,
      "mini": 4452,
      "---": 4453,
      "command": 4454,
      "visible": 4455,
      "handed": 4456,
      "walter": 4457,
      "visuals": 4458,
      "trilogy": 4459,
      "rough": 4460,
      "wat": 4461,
      "asking": 4462,
      "anderson": 4463,
      "strip": 4464,
      "haw": 4465,
      "alleng": 4466,
      "clue": 4467,
      "scenario": 4468,
      "offensive": 4469,
      "speech": 4470,
      "lesbian": 4471,
      "believes": 4472,
      "caused": 4473,
      "painfully": 4474,
      "fix": 4475,
      "treatment": 4476,
      "seasons": 4477,
      "adventures": 4478,
      "karl": 4479,
      "dreadful": 4480,
      "technology": 4481,
      "authentic": 4482,
      "ey": 4483,
      "eer": 4484,
      "fro": 4485,
      "skill": 4486,
      "rep": 4487,
      "families": 4488,
      "ignor": 4489,
      "drew": 4490,
      "silver": 4491,
      "sisters": 4492,
      "contribut": 4493,
      "understo": 4494,
      "halloween": 4495,
      "nis": 4496,
      "native": 4497,
      "reput": 4498,
      "asian": 4499,
      "forth": 4500,
      "feet": 4501,
      "ache": 4502,
      "monkey": 4503,
      "evol": 4504,
      "handsome": 4505,
      "spoof": 4506,
      "ruined": 4507,
      "desert": 4508,
      "levels": 4509,
      "claims": 4510,
      "executed": 4511,
      "broadway": 4512,
      "crowd": 4513,
      "amateurish": 4514,
      "hoff": 4515,
      "kh": 4516,
      "sno": 4517,
      "fornia": 4518,
      "hearing": 4519,
      "iding": 4520,
      "aret": 4521,
      "rix": 4522,
      "usive": 4523,
      "anton": 4524,
      "underrated": 4525,
      "barry": 4526,
      "reviewer": 4527,
      "ski": 4528,
      "portrays": 4529,
      "descript": 4530,
      "expression": 4531,
      "dubbed": 4532,
      "extras": 4533,
      "environ": 4534,
      "understood": 4535,
      "25": 4536,
      "sie": 4537,
      "encounter": 4538,
      "icts": 4539,
      "spin": 4540,
      "sports": 4541,
      "highlight": 4542,
      "product": 4543,
      "convinced": 4544,
      "sedu": 4545,
      "nichol": 4546,
      "excitement": 4547,
      "17": 4548,
      "ctr": 4549,
      "pile": 4550,
      "inte": 4551,
      "analy": 4552,
      "beach": 4553,
      "account": 4554,
      "supp": 4555,
      "guil": 4556,
      "serves": 4557,
      "rental": 4558,
      "nevertheless": 4559,
      "parker": 4560,
      "bitter": 4561,
      "walks": 4562,
      "harsh": 4563,
      "faithful": 4564,
      "intentionally": 4565,
      "ancient": 4566,
      "ibility": 4567,
      "kung": 4568,
      "link": 4569,
      "nar": 4570,
      "chant": 4571,
      "irish": 4572,
      "scr": 4573,
      "costu": 4574,
      "clark": 4575,
      "angers": 4576,
      "angles": 4577,
      "ryan": 4578,
      "choose": 4579,
      "chosen": 4580,
      "produce": 4581,
      "relate": 4582,
      "swim": 4583,
      "largely": 4584,
      "mirror": 4585,
      "depressing": 4586,
      "protagonist": 4587,
      "barbara": 4588,
      "circumstances": 4589,
      "costume": 4590,
      "gate": 4591,
      "va": 4592,
      "xious": 4593,
      "scale": 4594,
      "grim": 4595,
      "assass": 4596,
      "surreal": 4597,
      "generation": 4598,
      "portraying": 4599,
      "necessarily": 4600,
      "described": 4601,
      "combination": 4602,
      "cit": 4603,
      "range": 4604,
      "till": 4605,
      "rebel": 4606,
      "atroc": 4607,
      "ena": 4608,
      "challeng": 4609,
      "partic": 4610,
      "mates": 4611,
      "statement": 4612,
      "captures": 4613,
      "fictional": 4614,
      "cis": 4615,
      "dino": 4616,
      "recall": 4617,
      "report": 4618,
      "atl": 4619,
      "neat": 4620,
      "gray": 4621,
      "aka": 4622,
      "handled": 4623,
      "cutting": 4624,
      "facts": 4625,
      "refle": 4626,
      "gordon": 4627,
      "contrived": 4628,
      "assume": 4629,
      "source": 4630,
      "bac": 4631,
      "dent": 4632,
      "som": 4633,
      "sword": 4634,
      "sop": 4635,
      "shut": 4636,
      "cia": 4637,
      "mask": 4638,
      "winner": 4639,
      "experienced": 4640,
      "exploitation": 4641,
      "fame": 4642,
      "factor": 4643,
      "tiny": 4644,
      "stum": 4645,
      "chose": 4646,
      "bra": 4647,
      "ador": 4648,
      "poster": 4649,
      "inevit": 4650,
      "ette": 4651,
      "passing": 4652,
      "driven": 4653,
      "expert": 4654,
      "welcome": 4655,
      "hanging": 4656,
      "hitchcock": 4657,
      "rules": 4658,
      "victoria": 4659,
      "relevant": 4660,
      "reminis": 4661,
      "section": 4662,
      "secur": 4663,
      "aint": 4664,
      "evidence": 4665,
      "tedious": 4666,
      "cares": 4667,
      "murphy": 4668,
      "involves": 4669,
      "teenager": 4670,
      "initial": 4671,
      "):": 4672,
      "lousy": 4673,
      "rober": 4674,
      "rights": 4675,
      "cooper": 4676,
      "rach": 4677,
      "steals": 4678,
      "pursu": 4679,
      "shocked": 4680,
      "existent": 4681,
      "learns": 4682,
      "propag": 4683,
      "contemporary": 4684,
      "imaginative": 4685,
      "sympathy": 4686,
      "wick": 4687,
      "revel": 4688,
      "enthus": 4689,
      "semi": 4690,
      "gosi": 4691,
      "pets": 4692,
      "femin": 4693,
      "pregn": 4694,
      "matters": 4695,
      "tural": 4696,
      "poses": 4697,
      "directly": 4698,
      "distri": 4699,
      "holding": 4700,
      "dragon": 4701,
      "ville": 4702,
      "insult": 4703,
      "nancy": 4704,
      "texas": 4705,
      "method": 4706,
      "enthusi": 4707,
      "din": 4708,
      "figh": 4709,
      "hint": 4710,
      "unrealistic": 4711,
      "doo": 4712,
      "plor": 4713,
      "lower": 4714,
      "udes": 4715,
      "spects": 4716,
      "thoughts": 4717,
      "anged": 4718,
      "talks": 4719,
      "voices": 4720,
      "prior": 4721,
      "resist": 4722,
      "anagh": 4723,
      "reporter": 4724,
      "horribly": 4725,
      "sne": 4726,
      "yl": 4727,
      "isol": 4728,
      "trap": 4729,
      "function": 4730,
      "forest": 4731,
      "classics": 4732,
      "???": 4733,
      "training": 4734,
      "cowboy": 4735,
      "relatively": 4736,
      "citiz": 4737,
      "gie": 4738,
      "ium": 4739,
      "lion": 4740,
      "robot": 4741,
      "universe": 4742,
      "jackie": 4743,
      "obsessed": 4744,
      "loyal": 4745,
      "veteran": 4746,
      "fic": 4747,
      "tast": 4748,
      "alco": 4749,
      "asle": 4750,
      "ada": 4751,
      "mail": 4752,
      "plans": 4753,
      "makeup": 4754,
      "liners": 4755,
      "hopefully": 4756,
      "strongly": 4757,
      "politics": 4758,
      "oliver": 4759,
      "qualities": 4760,
      "intellectual": 4761,
      "asleep": 4762,
      "dal": 4763,
      "nut": 4764,
      "ole": 4765,
      "ama": 4766,
      "firm": 4767,
      "surface": 4768,
      "emma": 4769,
      "lugosi": 4770,
      "lawyer": 4771,
      "movement": 4772,
      "unlikely": 4773,
      "apping": 4774,
      "essential": 4775,
      "false": 4776,
      "routine": 4777,
      "storm": 4778,
      "saturday": 4779,
      "alcohol": 4780,
      ",'": 4781,
      "gren": 4782,
      "kins": 4783,
      "vig": 4784,
      "wend": 4785,
      "losing": 4786,
      "maid": 4787,
      "focused": 4788,
      "hyster": 4789,
      "headed": 4790,
      "landsc": 4791,
      "fortune": 4792,
      "dynam": 4793,
      "faced": 4794,
      "hammer": 4795,
      "sequels": 4796,
      "previously": 4797,
      "weekend": 4798,
      "francis": 4799,
      "granted": 4800,
      "rell": 4801,
      "alle": 4802,
      "alice": 4803,
      "beast": 4804,
      "outrage": 4805,
      "dean": 4806,
      "neck": 4807,
      "closer": 4808,
      "treasure": 4809,
      "appreciated": 4810,
      "africa": 4811,
      "nominated": 4812,
      "eu": 4813,
      "wins": 4814,
      "ert": 4815,
      "edward": 4816,
      "bron": 4817,
      "improve": 4818,
      "believed": 4819,
      "sides": 4820,
      "sitcom": 4821,
      "critical": 4822,
      "claimed": 4823,
      "cartoons": 4824,
      "prime": 4825,
      "baseball": 4826,
      "disgusting": 4827,
      "australian": 4828,
      "ludic": 4829,
      "integr": 4830,
      "fid": 4831,
      "jaw": 4832,
      "tag": 4833,
      "abuse": 4834,
      "dos": 4835,
      "maint": 4836,
      "mented": 4837,
      "capital": 4838,
      "involve": 4839,
      "painting": 4840,
      "cliff": 4841,
      "sorts": 4842,
      "friday": 4843,
      "jung": 4844,
      "pier": 4845,
      "vague": 4846,
      "yard": 4847,
      "rece": 4848,
      "arrest": 4849,
      "iles": 4850,
      "champ": 4851,
      "brick": 4852,
      "robo": 4853,
      "pool": 4854,
      "torn": 4855,
      "shall": 4856,
      "blah": 4857,
      "electr": 4858,
      "ruin": 4859,
      "football": 4860,
      "latest": 4861,
      "accents": 4862,
      "franch": 4863,
      "dust": 4864,
      "ato": 4865,
      "hole": 4866,
      "poign": 4867,
      "display": 4868,
      "destru": 4869,
      "adding": 4870,
      "teenagers": 4871,
      "provided": 4872,
      "designed": 4873,
      "influence": 4874,
      "suffers": 4875,
      "establish": 4876,
      "weeks": 4877,
      "maintain": 4878,
      "1st": 4879,
      "gles": 4880,
      "lane": 4881,
      "sab": 4882,
      "spre": 4883,
      "sink": 4884,
      "holi": 4885,
      "fee": 4886,
      "oking": 4887,
      "teens": 4888,
      "spy": 4889,
      "evident": 4890,
      "warri": 4891,
      "ashing": 4892,
      "subtitles": 4893,
      "deaths": 4894,
      "cyn": 4895,
      "princess": 4896,
      "struggling": 4897,
      "demand": 4898,
      "particip": 4899,
      "ec": 4900,
      "gm": 4901,
      "sir": 4902,
      "ued": 4903,
      "thel": 4904,
      "stair": 4905,
      "meat": 4906,
      "shan": 4907,
      "gritty": 4908,
      "ideal": 4909,
      "osex": 4910,
      "friendly": 4911,
      "committed": 4912,
      "coln": 4913,
      "colors": 4914,
      "mainstream": 4915,
      "lincoln": 4916,
      "spoken": 4917,
      "experiences": 4918,
      "figured": 4919,
      "pacino": 4920,
      "russell": 4921,
      "continuity": 4922,
      "idiot": 4923,
      "virtually": 4924,
      "enemy": 4925,
      "plausible": 4926,
      "kni": 4927,
      "vict": 4928,
      "arms": 4929,
      "stit": 4930,
      "chi": 4931,
      "whoever": 4932,
      "realizes": 4933,
      "tax": 4934,
      "tons": 4935,
      "roman": 4936,
      "benef": 4937,
      "changing": 4938,
      "twisted": 4939,
      "network": 4940,
      "controvers": 4941,
      "emphas": 4942,
      "sensitive": 4943,
      "sarah": 4944,
      "refreshing": 4945,
      "propaganda": 4946,
      "bush": 4947,
      "dd": 4948,
      "hr": 4949,
      "jail": 4950,
      "mous": 4951,
      "tan": 4952,
      "het": 4953,
      "susan": 4954,
      "decl": 4955,
      "notch": 4956,
      "uss": 4957,
      "bore": 4958,
      "grab": 4959,
      "everywhere": 4960,
      "colon": 4961,
      "excess": 4962,
      "ugs": 4963,
      "unfortunate": 4964,
      "convince": 4965,
      "speaks": 4966,
      "miller": 4967,
      "execution": 4968,
      "technically": 4969,
      "accidentally": 4970,
      "legendary": 4971,
      "frightening": 4972,
      "guilty": 4973,
      "rachel": 4974,
      "aunt": 4975,
      "bone": 4976,
      "dare": 4977,
      "jen": 4978,
      "nur": 4979,
      "pitt": 4980,
      "uel": 4981,
      "dol": 4982,
      "metal": 4983,
      "exagger": 4984,
      "convict": 4985,
      "preach": 4986,
      "indie": 4987,
      "tales": 4988,
      "burns": 4989,
      "paint": 4990,
      "surprises": 4991,
      "cases": 4992,
      "pati": 4993,
      "dogs": 4994,
      "journal": 4995,
      "combined": 4996,
      "lonely": 4997,
      "hoffman": 4998,
      "osexual": 4999,
      "cous": 5000,
      "ee": 5001,
      "fed": 5002,
      "flight": 5003,
      "idio": 5004,
      "dozen": 5005,
      "compar": 5006,
      "foster": 5007,
      "porno": 5008,
      "curt": 5009,
      "deadly": 5010,
      "factory": 5011,
      "daughters": 5012,
      "narration": 5013,
      "massive": 5014,
      "dollars": 5015,
      "melodrama": 5016,
      "nazi": 5017,
      "category": 5018,
      "conscious": 5019,
      "reputation": 5020,
      "notori": 5021,
      "doom": 5022,
      "web": 5023,
      "overwhel": 5024,
      "matrix": 5025,
      "turkey": 5026,
      "truck": 5027,
      "performed": 5028,
      "borrow": 5029,
      "titanic": 5030,
      "rule": 5031,
      "favorites": 5032,
      "campy": 5033,
      "connect": 5034,
      "connected": 5035,
      "cultural": 5036,
      "wilder": 5037,
      "depicted": 5038,
      "structure": 5039,
      "bren": 5040,
      "cence": 5041,
      "jun": 5042,
      "oul": 5043,
      "chased": 5044,
      "branagh": 5045,
      "upper": 5046,
      "crying": 5047,
      "drum": 5048,
      "hugh": 5049,
      "sidney": 5050,
      "creatures": 5051,
      "grey": 5052,
      "haunted": 5053,
      "divor": 5054,
      "habit": 5055,
      "security": 5056,
      "bin": 5057,
      "kore": 5058,
      "rhy": 5059,
      "aming": 5060,
      "uninteresting": 5061,
      "histic": 5062,
      "pted": 5063,
      "crude": 5064,
      "afternoon": 5065,
      "downright": 5066,
      "supernatural": 5067,
      "johnson": 5068,
      "clips": 5069,
      "sunday": 5070,
      "mirac": 5071,
      "occasional": 5072,
      "wilson": 5073,
      "surviv": 5074,
      "protect": 5075,
      "california": 5076,
      "jessica": 5077,
      "gro": 5078,
      "kur": 5079,
      "mst": 5080,
      "mort": 5081,
      "tap": 5082,
      "wand": 5083,
      "wwi": 5084,
      "intr": 5085,
      "braz": 5086,
      "betray": 5087,
      "render": 5088,
      "warned": 5089,
      "ashed": 5090,
      "confess": 5091,
      "explains": 5092,
      "hong": 5093,
      "mgm": 5094,
      "access": 5095,
      "artists": 5096,
      "spite": 5097,
      "spends": 5098,
      "flor": 5099,
      "lifetime": 5100,
      "lands": 5101,
      "jobs": 5102,
      "midnight": 5103,
      "listening": 5104,
      "stays": 5105,
      "blockbuster": 5106,
      "complicated": 5107,
      "dinosaur": 5108,
      "bull": 5109,
      "las": 5110,
      "pas": 5111,
      "instru": 5112,
      "beck": 5113,
      "nostal": 5114,
      "uted": 5115,
      "amber": 5116,
      "alling": 5117,
      "conce": 5118,
      "offered": 5119,
      "caring": 5120,
      "tremend": 5121,
      "1980": 5122,
      "throwing": 5123,
      "professor": 5124,
      "roberts": 5125,
      "dud": 5126,
      "mud": 5127,
      "ida": 5128,
      "iran": 5129,
      "seek": 5130,
      "intens": 5131,
      "gia": 5132,
      "happiness": 5133,
      "stolen": 5134,
      "hardy": 5135,
      "corner": 5136,
      "minds": 5137,
      "walked": 5138,
      "magical": 5139,
      "bbc": 5140,
      "southern": 5141,
      "touched": 5142,
      "aliens": 5143,
      ".)<": 5144,
      "suspenseful": 5145,
      "required": 5146,
      "eliza": 5147,
      "!),": 5148,
      "gand": 5149,
      "ners": 5150,
      "wreck": 5151,
      "peck": 5152,
      "powell": 5153,
      "concent": 5154,
      "gues": 5155,
      "address": 5156,
      "pulls": 5157,
      "occup": 5158,
      "metap": 5159,
      "scares": 5160,
      "philip": 5161,
      "multiple": 5162,
      "department": 5163,
      "99": 5164,
      "aur": 5165,
      "tree": 5166,
      "anch": 5167,
      "alas": 5168,
      "astr": 5169,
      "stro": 5170,
      "china": 5171,
      "kets": 5172,
      "trav": 5173,
      "explor": 5174,
      "worry": 5175,
      "prostit": 5176,
      "maria": 5177,
      "phan": 5178,
      "contest": 5179,
      "worthwhile": 5180,
      "magaz": 5181,
      "severe": 5182,
      "steps": 5183,
      "freeman": 5184,
      "studios": 5185,
      "reveals": 5186,
      "recognize": 5187,
      "inspiration": 5188,
      "ignore": 5189,
      "conversation": 5190,
      "columbo": 5191,
      "bay": 5192,
      "eve": 5193,
      "iat": 5194,
      "nude": 5195,
      "icious": 5196,
      "unconvincing": 5197,
      "sus": 5198,
      "trapped": 5199,
      "quar": 5200,
      "shif": 5201,
      "bothered": 5202,
      "arded": 5203,
      "aken": 5204,
      "bern": 5205,
      "matth": 5206,
      "halfway": 5207,
      "shaw": 5208,
      "sulli": 5209,
      "larry": 5210,
      "admitted": 5211,
      "graphics": 5212,
      "julia": 5213,
      "focuses": 5214,
      "demons": 5215,
      "slapstick": 5216,
      "remotely": 5217,
      "captiv": 5218,
      "significant": 5219,
      "phe": 5220,
      "thumb": 5221,
      "redu": 5222,
      "mock": 5223,
      "degree": 5224,
      "finan": 5225,
      "warner": 5226,
      "warming": 5227,
      "kinds": 5228,
      "driver": 5229,
      "featured": 5230,
      "figures": 5231,
      "mistakes": 5232,
      "heavily": 5233,
      "smoo": 5234,
      "mildly": 5235,
      "brando": 5236,
      "sophistic": 5237,
      "reminiscent": 5238,
      "sullivan": 5239,
      "24": 5240,
      "slaughter": 5241,
      "theory": 5242,
      "rein": 5243,
      "toler": 5244,
      "ilities": 5245,
      "seag": 5246,
      "roger": 5247,
      "elli": 5248,
      "rious": 5249,
      "feed": 5250,
      "tear": 5251,
      "quin": 5252,
      "indul": 5253,
      "adequ": 5254,
      "cring": 5255,
      "interview": 5256,
      "spector": 5257,
      "renting": 5258,
      "otes": 5259,
      "examples": 5260,
      "learning": 5261,
      "tradition": 5262,
      "destroyed": 5263,
      "drinking": 5264,
      "birds": 5265,
      "weapon": 5266,
      "abandoned": 5267,
      "guarante": 5268,
      "atrocious": 5269,
      "jungle": 5270,
      "\"),": 5271,
      "ji": 5272,
      "nn": 5273,
      "tong": 5274,
      "/>(": 5275,
      "neth": 5276,
      "cole": 5277,
      "crush": 5278,
      "cheese": 5279,
      "carol": 5280,
      "screening": 5281,
      "minded": 5282,
      "closing": 5283,
      "dramat": 5284,
      "amazed": 5285,
      "deliber": 5286,
      "appearing": 5287,
      "touches": 5288,
      "struck": 5289,
      "thankfully": 5290,
      "determined": 5291,
      "quirky": 5292,
      "bang": 5293,
      "lisa": 5294,
      "nights": 5295,
      "pig": 5296,
      "thro": 5297,
      "libr": 5298,
      "rochester": 5299,
      "goth": 5300,
      "mechan": 5301,
      "ques": 5302,
      "decades": 5303,
      "aham": 5304,
      "murderer": 5305,
      "summary": 5306,
      "stayed": 5307,
      "rolled": 5308,
      "desperately": 5309,
      "cabin": 5310,
      "status": 5311,
      "description": 5312,
      "ludicrous": 5313,
      "60s": 5314,
      "hired": 5315,
      "jac": 5316,
      "wave": 5317,
      "reward": 5318,
      "alright": 5319,
      "orient": 5320,
      "ari": 5321,
      "mol": 5322,
      "acing": 5323,
      "ader": 5324,
      "poe": 5325,
      "grin": 5326,
      "workers": 5327,
      "obno": 5328,
      "calling": 5329,
      "imagery": 5330,
      "productions": 5331,
      "picks": 5332,
      "advant": 5333,
      "funnier": 5334,
      "notorious": 5335,
      "nin": 5336,
      "vast": 5337,
      "attr": 5338,
      "toy": 5339,
      "stunt": 5340,
      "beloved": 5341,
      "modest": 5342,
      "noble": 5343,
      "pled": 5344,
      "1950": 5345,
      "sounded": 5346,
      "helping": 5347,
      "darkness": 5348,
      "2001": 5349,
      "india": 5350,
      "balance": 5351,
      "swed": 5352,
      "effectively": 5353,
      "racist": 5354,
      "julie": 5355,
      "fisher": 5356,
      "hud": 5357,
      "sions": 5358,
      "challen": 5359,
      "math": 5360,
      "blat": 5361,
      "dude": 5362,
      "marg": 5363,
      "mono": 5364,
      "choices": 5365,
      "voc": 5366,
      "folk": 5367,
      "dennis": 5368,
      "burton": 5369,
      "variety": 5370,
      "throws": 5371,
      "daily": 5372,
      "regarding": 5373,
      "bridge": 5374,
      "convey": 5375,
      "chilling": 5376,
      "praise": 5377,
      "prepared": 5378,
      "ego": 5379,
      "fing": 5380,
      "nit": 5381,
      "nest": 5382,
      "ara": 5383,
      "ieu": 5384,
      "ami": 5385,
      "aby": 5386,
      "canni": 5387,
      "believ": 5388,
      "obsc": 5389,
      "border": 5390,
      "tition": 5391,
      "amazingly": 5392,
      "2000": 5393,
      "profound": 5394,
      "extraordinary": 5395,
      "fabulous": 5396,
      "bic": 5397,
      "cod": 5398,
      "hing": 5399,
      "task": 5400,
      "thunder": 5401,
      "inspector": 5402,
      "alter": 5403,
      "outs": 5404,
      "outing": 5405,
      "scars": 5406,
      "teeth": 5407,
      "pred": 5408,
      "proof": 5409,
      "blair": 5410,
      "...\"": 5411,
      "stomach": 5412,
      "phant": 5413,
      "philli": 5414,
      "buying": 5415,
      "titled": 5416,
      "extent": 5417,
      "burst": 5418,
      "delivery": 5419,
      "legal": 5420,
      "successfully": 5421,
      "attempting": 5422,
      "alike": 5423,
      "immense": 5424,
      "criminals": 5425,
      "mexico": 5426,
      "deeper": 5427,
      "hil": 5428,
      "pes": 5429,
      "thed": 5430,
      "ensu": 5431,
      "rod": 5432,
      "prevent": 5433,
      "spiel": 5434,
      "greater": 5435,
      "lesser": 5436,
      "basis": 5437,
      "craw": 5438,
      "facial": 5439,
      "hopeless": 5440,
      "device": 5441,
      "!!!!!!!!": 5442,
      "settings": 5443,
      "initially": 5444,
      "inspiring": 5445,
      "pregnant": 5446,
      "brazil": 5447,
      "hence": 5448,
      "hatt": 5449,
      "mul": 5450,
      "mble": 5451,
      "pian": 5452,
      "ita": 5453,
      "chy": 5454,
      "hears": 5455,
      "term": 5456,
      "doc": 5457,
      "shr": 5458,
      "mentally": 5459,
      "underground": 5460,
      "letting": 5461,
      "jeal": 5462,
      "jewish": 5463,
      "harm": 5464,
      "confusion": 5465,
      "anticip": 5466,
      "paying": 5467,
      "amongst": 5468,
      "bollywood": 5469,
      "criticism": 5470,
      "properly": 5471,
      "matthau": 5472,
      "smooth": 5473,
      "\").": 5474,
      "cure": 5475,
      "gil": 5476,
      "pic": 5477,
      "yle": 5478,
      "ading": 5479,
      "forgot": 5480,
      "therine": 5481,
      "illust": 5482,
      "conspir": 5483,
      "sham": 5484,
      "aking": 5485,
      "everyday": 5486,
      "cheer": 5487,
      "needless": 5488,
      "handle": 5489,
      "illian": 5490,
      "vincent": 5491,
      "elev": 5492,
      "stylish": 5493,
      "2006": 5494,
      "novels": 5495,
      "strangely": 5496,
      "install": 5497,
      "widow": 5498,
      "mexican": 5499,
      "seagal": 5500,
      "cave": 5501,
      "gad": 5502,
      "lazy": 5503,
      "pg": 5504,
      "pound": 5505,
      "rab": 5506,
      "tick": 5507,
      "league": 5508,
      "adays": 5509,
      "absor": 5510,
      "dece": 5511,
      "diam": 5512,
      "join": 5513,
      "nowadays": 5514,
      "disbelief": 5515,
      "vivid": 5516,
      "originality": 5517,
      "addy": 5518,
      "dramas": 5519,
      "broke": 5520,
      "fiance": 5521,
      "ratings": 5522,
      "transfer": 5523,
      "fourth": 5524,
      "sleeping": 5525,
      "stereotypical": 5526,
      "stanwy": 5527,
      "bun": 5528,
      "hous": 5529,
      "knight": 5530,
      "uff": 5531,
      "esque": 5532,
      "lean": 5533,
      "iring": 5534,
      "mansion": 5535,
      "usa": 5536,
      "storytelling": 5537,
      "pointed": 5538,
      "mond": 5539,
      "trium": 5540,
      "sinister": 5541,
      "condition": 5542,
      "walker": 5543,
      "shape": 5544,
      "westerns": 5545,
      "bilities": 5546,
      "embarrassed": 5547,
      "consistent": 5548,
      "weapons": 5549,
      "sentimental": 5550,
      "elizabeth": 5551,
      "obnoxious": 5552,
      "kiss": 5553,
      "mouse": 5554,
      "sive": 5555,
      "error": 5556,
      "ads": 5557,
      "ironic": 5558,
      "scoo": 5559,
      "wears": 5560,
      "confront": 5561,
      "claire": 5562,
      "disc": 5563,
      "assign": 5564,
      "starred": 5565,
      "ashamed": 5566,
      "valent": 5567,
      "deni": 5568,
      "credible": 5569,
      "equal": 5570,
      "official": 5571,
      "vacation": 5572,
      "champion": 5573,
      "intensity": 5574,
      "stanwyck": 5575,
      "hh": 5576,
      "isms": 5577,
      "asm": 5578,
      "rial": 5579,
      "comical": 5580,
      "exists": 5581,
      "dign": 5582,
      "grues": 5583,
      "creation": 5584,
      "lessons": 5585,
      "happily": 5586,
      "void": 5587,
      "causes": 5588,
      "psychiat": 5589,
      "carrying": 5590,
      "rogers": 5591,
      "vietnam": 5592,
      "brooks": 5593,
      "marvelous": 5594,
      "crafted": 5595,
      "environment": 5596,
      "bast": 5597,
      "dur": 5598,
      "ology": 5599,
      "stoo": 5600,
      "isand": 5601,
      "beating": 5602,
      "advan": 5603,
      "butt": 5604,
      "notable": 5605,
      "therland": 5606,
      "premi": 5607,
      "raj": 5608,
      "raised": 5609,
      "disgu": 5610,
      "answers": 5611,
      "simpl": 5612,
      "paralle": 5613,
      "bug": 5614,
      "vised": 5615,
      "titive": 5616,
      "lucy": 5617,
      "laid": 5618,
      "legs": 5619,
      "reflect": 5620,
      "boll": 5621,
      "splend": 5622,
      "jumps": 5623,
      "poignant": 5624,
      "\"?": 5625,
      "aired": 5626,
      "sag": 5627,
      "ware": 5628,
      "intim": 5629,
      "arnold": 5630,
      "abor": 5631,
      "olic": 5632,
      "charge": 5633,
      "internet": 5634,
      "trial": 5635,
      "stops": 5636,
      "phen": 5637,
      "holmes": 5638,
      "fallen": 5639,
      "rub": 5640,
      "passes": 5641,
      "patient": 5642,
      "musicals": 5643,
      "homosexual": 5644,
      "provoking": 5645,
      "attacks": 5646,
      "purely": 5647,
      "sandler": 5648,
      "interpretation": 5649,
      "goofy": 5650,
      "holiday": 5651,
      "diamond": 5652,
      "bare": 5653,
      "mund": 5654,
      "pher": 5655,
      "isto": 5656,
      "replaced": 5657,
      "stab": 5658,
      "sutherland": 5659,
      "aston": 5660,
      "cox": 5661,
      "enjoying": 5662,
      "clock": 5663,
      "logist": 5664,
      "announ": 5665,
      "nonetheless": 5666,
      "destro": 5667,
      "gather": 5668,
      "introduction": 5669,
      "streisand": 5670,
      "striking": 5671,
      "locked": 5672,
      "dollar": 5673,
      "packed": 5674,
      "arrives": 5675,
      "obsession": 5676,
      "escapes": 5677,
      "knife": 5678,
      "gruesome": 5679,
      "boun": 5680,
      "lished": 5681,
      "mup": 5682,
      "inations": 5683,
      "atives": 5684,
      "ila": 5685,
      "aces": 5686,
      "nose": 5687,
      "abilities": 5688,
      "irony": 5689,
      "shorts": 5690,
      "disagree": 5691,
      "greatly": 5692,
      "leslie": 5693,
      "posing": 5694,
      "subsequ": 5695,
      "topic": 5696,
      "exceptional": 5697,
      "michelle": 5698,
      "innocence": 5699,
      "ghosts": 5700,
      "massac": 5701,
      "panic": 5702,
      "depiction": 5703,
      "established": 5704,
      "mst3": 5705,
      "advantage": 5706,
      "hudson": 5707,
      "spielberg": 5708,
      "dinner": 5709,
      "vous": 5710,
      "invisible": 5711,
      "rever": 5712,
      "eness": 5713,
      "lian": 5714,
      "rian": 5715,
      "det": 5716,
      "doors": 5717,
      "plastic": 5718,
      "upset": 5719,
      "shy": 5720,
      "bette": 5721,
      "carries": 5722,
      "parano": 5723,
      "pressed": 5724,
      "spook": 5725,
      "opened": 5726,
      "trait": 5727,
      "ification": 5728,
      "flawed": 5729,
      "hills": 5730,
      "1950s": 5731,
      "stanley": 5732,
      "intentions": 5733,
      "intentional": 5734,
      "nelson": 5735,
      "neighborhood": 5736,
      "baker": 5737,
      "frequently": 5738,
      "navy": 5739,
      "distribut": 5740,
      "franchise": 5741,
      "wwii": 5742,
      "lur": 5743,
      "nd": 5744,
      "sque": 5745,
      "wan": 5746,
      "terrifying": 5747,
      "scrip": 5748,
      "maf": 5749,
      "iffer": 5750,
      "perfection": 5751,
      "eston": 5752,
      "quote": 5753,
      "shark": 5754,
      "shower": 5755,
      "dub": 5756,
      "shoes": 5757,
      "curren": 5758,
      "burt": 5759,
      "laura": 5760,
      "busy": 5761,
      "weakness": 5762,
      "sleazy": 5763,
      "refuses": 5764,
      "iii": 5765,
      "hunting": 5766,
      "racism": 5767,
      "scratch": 5768,
      "etern": 5769,
      "kis": 5770,
      "lily": 5771,
      "sket": 5772,
      "tire": 5773,
      "thre": 5774,
      "stress": 5775,
      "tery": 5776,
      "dear": 5777,
      "tracy": 5778,
      "manager": 5779,
      "actic": 5780,
      "ourselves": 5781,
      "overcome": 5782,
      "bettie": 5783,
      "pride": 5784,
      "carried": 5785,
      "month": 5786,
      "comedian": 5787,
      "helen": 5788,
      "basket": 5789,
      "listed": 5790,
      "thrilling": 5791,
      "wheel": 5792,
      "oddly": 5793,
      "atmospher": 5794,
      "dawn": 5795,
      "torial": 5796,
      "reference": 5797,
      "physically": 5798,
      "breathtaking": 5799,
      "tribute": 5800,
      "cynical": 5801,
      "curtis": 5802,
      "bart": 5803,
      "hick": 5804,
      "jol": 5805,
      "jet": 5806,
      "kaz": 5807,
      "rum": 5808,
      "sg": 5809,
      "yu": 5810,
      "infer": 5811,
      "infamous": 5812,
      "editor": 5813,
      "aded": 5814,
      "adol": 5815,
      "wasting": 5816,
      "kee": 5817,
      "suspects": 5818,
      "timing": 5819,
      "iger": 5820,
      "awa": 5821,
      "blond": 5822,
      "horrend": 5823,
      "carl": 5824,
      "caric": 5825,
      "warn": 5826,
      "attend": 5827,
      "letter": 5828,
      "screenwriter": 5829,
      "countries": 5830,
      "lucas": 5831,
      "brow": 5832,
      "britain": 5833,
      "homeless": 5834,
      "1970": 5835,
      "adapted": 5836,
      "medium": 5837,
      "spiritual": 5838,
      "satisfied": 5839,
      "tune": 5840,
      "widmark": 5841,
      "succeeds": 5842,
      "loyd": 5843,
      "thousand": 5844,
      "wealthy": 5845,
      "kirk": 5846,
      "thick": 5847,
      "isra": 5848,
      "ingen": 5849,
      "stall": 5850,
      "vey": 5851,
      "iments": 5852,
      "pover": 5853,
      "tors": 5854,
      "conven": 5855,
      "quis": 5856,
      "myst": 5857,
      "shell": 5858,
      "joint": 5859,
      "carter": 5860,
      "reads": 5861,
      "cube": 5862,
      "drives": 5863,
      "madness": 5864,
      "millions": 5865,
      "battles": 5866,
      "attacked": 5867,
      "respond": 5868,
      "kicks": 5869,
      "struggles": 5870,
      "revolves": 5871,
      "suffered": 5872,
      "split": 5873,
      "doro": 5874,
      "conventional": 5875,
      "challenge": 5876,
      "triumph": 5877,
      "jake": 5878,
      "lloyd": 5879,
      "xon": 5880,
      "enor": 5881,
      "chasing": 5882,
      "chamber": 5883,
      "bride": 5884,
      "seed": 5885,
      "imit": 5886,
      "ament": 5887,
      "hoo": 5888,
      "geor": 5889,
      "exer": 5890,
      "condu": 5891,
      "seeking": 5892,
      "elled": 5893,
      "raise": 5894,
      "whereas": 5895,
      "miscast": 5896,
      "carp": 5897,
      "relax": 5898,
      "farm": 5899,
      "riding": 5900,
      "fortunately": 5901,
      "thrillers": 5902,
      "wishes": 5903,
      "retarded": 5904,
      "personalities": 5905,
      "redem": 5906,
      "separate": 5907,
      "dorothy": 5908,
      "\"...": 5909,
      "fitting": 5910,
      "oil": 5911,
      "rates": 5912,
      "tense": 5913,
      "yo": 5914,
      "inexplic": 5915,
      "anity": 5916,
      "err": 5917,
      "arrog": 5918,
      "poet": 5919,
      "neil": 5920,
      "istan": 5921,
      "afford": 5922,
      "dislike": 5923,
      "enjoyment": 5924,
      "bugs": 5925,
      "relent": 5926,
      "mindless": 5927,
      "presentation": 5928,
      "balls": 5929,
      "hipp": 5930,
      "fatal": 5931,
      "performers": 5932,
      "technique": 5933,
      "caricature": 5934,
      "kane": 5935,
      "mit": 5936,
      "pap": 5937,
      "thief": 5938,
      "restrain": 5939,
      "itar": 5940,
      "uncomfortable": 5941,
      "elabor": 5942,
      "ural": 5943,
      "frag": 5944,
      "shines": 5945,
      "spark": 5946,
      "clum": 5947,
      "clint": 5948,
      "horses": 5949,
      "glimp": 5950,
      "attle": 5951,
      "contact": 5952,
      "mighty": 5953,
      "risk": 5954,
      "bald": 5955,
      "ralph": 5956,
      "countless": 5957,
      "expressions": 5958,
      "expensive": 5959,
      "gripping": 5960,
      "thirty": 5961,
      "fighter": 5962,
      "tongue": 5963,
      "scripts": 5964,
      "glimpse": 5965,
      "eager": 5966,
      "oscars": 5967,
      "rist": 5968,
      "tat": 5969,
      "tied": 5970,
      "anced": 5971,
      "chases": 5972,
      "amy": 5973,
      "unforgettable": 5974,
      "scor": 5975,
      "appl": 5976,
      "tea": 5977,
      "covers": 5978,
      "guilt": 5979,
      "blance": 5980,
      "tooth": 5981,
      "phr": 5982,
      "oblig": 5983,
      "dancer": 5984,
      "cusack": 5985,
      "satan": 5986,
      "guessing": 5987,
      "patri": 5988,
      "robber": 5989,
      "concert": 5990,
      "accepted": 5991,
      "passionate": 5992,
      "hiding": 5993,
      "bearable": 5994,
      "thousands": 5995,
      "minimal": 5996,
      "atlant": 5997,
      "controversial": 5998,
      "metaphor": 5999,
      "phenomen": 6000,
      "econ": 6001,
      "gic": 6002,
      "gall": 6003,
      "ggy": 6004,
      "pion": 6005,
      "tall": 6006,
      "reunion": 6007,
      "allo": 6008,
      "alleg": 6009,
      "sevent": 6010,
      "loid": 6011,
      "trau": 6012,
      "shed": 6013,
      "192": 6014,
      "ensemble": 6015,
      "sincere": 6016,
      "sings": 6017,
      "ception": 6018,
      "curse": 6019,
      "stupidity": 6020,
      "credibility": 6021,
      "dragged": 6022,
      "troubled": 6023,
      "innov": 6024,
      "*****": 6025,
      "meaningful": 6026,
      "repeat": 6027,
      "angels": 6028,
      "franco": 6029,
      "strike": 6030,
      "smoking": 6031,
      "basement": 6032,
      "tender": 6033,
      "specific": 6034,
      "mst3k": 6035,
      "gut": 6036,
      "hust": 6037,
      "hitting": 6038,
      "jere": 6039,
      "leo": 6040,
      "lovable": 6041,
      "ambig": 6042,
      "elder": 6043,
      "contract": 6044,
      "ishes": 6045,
      "vier": 6046,
      "medical": 6047,
      "spots": 6048,
      "godfather": 6049,
      "puzz": 6050,
      "larger": 6051,
      "savage": 6052,
      "kubrick": 6053,
      "rushed": 6054,
      "chaplin": 6055,
      "karloff": 6056,
      "kurt": 6057,
      "scooby": 6058,
      "econom": 6059,
      "dere": 6060,
      "fay": 6061,
      "ix": 6062,
      "kath": 6063,
      "inher": 6064,
      "enstein": 6065,
      "edly": 6066,
      "ripped": 6067,
      "demo": 6068,
      "trite": 6069,
      "manu": 6070,
      "shay": 6071,
      "shining": 6072,
      "interviews": 6073,
      "stranger": 6074,
      "worlds": 6075,
      "counters": 6076,
      "solve": 6077,
      "restaur": 6078,
      "burg": 6079,
      "italy": 6080,
      "crimes": 6081,
      "grandmother": 6082,
      "searching": 6083,
      "suggests": 6084,
      "insulting": 6085,
      "magazine": 6086,
      "cket": 6087,
      "kum": 6088,
      "pper": 6089,
      "sna": 6090,
      "alt": 6091,
      "albe": 6092,
      "entry": 6093,
      "forbid": 6094,
      "geon": 6095,
      "ultra": 6096,
      "dod": 6097,
      "bye": 6098,
      "indu": 6099,
      "eva": 6100,
      "believing": 6101,
      "attached": 6102,
      "corpse": 6103,
      "eleg": 6104,
      "wake": 6105,
      "closely": 6106,
      "grows": 6107,
      "bobby": 6108,
      "idiotic": 6109,
      "eastwood": 6110,
      "stretch": 6111,
      "endearing": 6112,
      "mafia": 6113,
      "exerc": 6114,
      "carpenter": 6115,
      "albeit": 6116,
      ":)": 6117,
      "ae": 6118,
      "eg": 6119,
      "fx": 6120,
      "ien": 6121,
      "stiff": 6122,
      "bears": 6123,
      "elvir": 6124,
      "ifies": 6125,
      "plague": 6126,
      "direc": 6127,
      "newsp": 6128,
      "mons": 6129,
      "muslim": 6130,
      "clown": 6131,
      "counts": 6132,
      "launch": 6133,
      "appearances": 6134,
      "osity": 6135,
      "appy": 6136,
      "andrew": 6137,
      "segments": 6138,
      "tube": 6139,
      "protagonists": 6140,
      "pseu": 6141,
      "redemption": 6142,
      "''": 6143,
      "2nd": 6144,
      "yan": 6145,
      "yel": 6146,
      "rely": 6147,
      "toss": 6148,
      "toile": 6149,
      "chil": 6150,
      "wells": 6151,
      "selling": 6152,
      "horrific": 6153,
      "performing": 6154,
      "denzel": 6155,
      "cameos": 6156,
      "2002": 6157,
      "annoyed": 6158,
      "drops": 6159,
      "sticks": 6160,
      "dialogs": 6161,
      "rita": 6162,
      "colorful": 6163,
      "scarecrow": 6164,
      "occurs": 6165,
      "catholic": 6166,
      "cousin": 6167,
      "derek": 6168,
      "pon": 6169,
      "pam": 6170,
      "uct": 6171,
      "useless": 6172,
      "icting": 6173,
      "hoped": 6174,
      "rive": 6175,
      "presum": 6176,
      "pray": 6177,
      "killings": 6178,
      "carrey": 6179,
      "stood": 6180,
      "glory": 6181,
      "yester": 6182,
      "videos": 6183,
      "typically": 6184,
      "dealt": 6185,
      "hamil": 6186,
      "saves": 6187,
      "portion": 6188,
      "shoots": 6189,
      "consists": 6190,
      "strikes": 6191,
      "tricks": 6192,
      "dubbing": 6193,
      "explicit": 6194,
      "atmospheric": 6195,
      "elvira": 6196,
      "?),": 6197,
      "awe": 6198,
      "bble": 6199,
      "finger": 6200,
      "kay": 6201,
      "todd": 6202,
      "icing": 6203,
      "idy": 6204,
      "haha": 6205,
      "noted": 6206,
      "aki": 6207,
      "worker": 6208,
      "selfish": 6209,
      "cheek": 6210,
      "ashes": 6211,
      "sexually": 6212,
      "voy": 6213,
      "miike": 6214,
      "engage": 6215,
      "develops": 6216,
      "males": 6217,
      "checking": 6218,
      "drown": 6219,
      "1970s": 6220,
      "stealing": 6221,
      "health": 6222,
      "charismatic": 6223,
      "hundreds": 6224,
      "crisis": 6225,
      "assistant": 6226,
      "citizen": 6227,
      "stairs": 6228,
      "sophisticated": 6229,
      ",,": 6230,
      "45": 6231,
      "fbi": 6232,
      "hire": 6233,
      "hank": 6234,
      "wack": 6235,
      "wright": 6236,
      "zone": 6237,
      "inser": 6238,
      "eral": 6239,
      "terior": 6240,
      "unintentionally": 6241,
      "ela": 6242,
      "elvis": 6243,
      "notes": 6244,
      "ifying": 6245,
      "usions": 6246,
      "spike": 6247,
      "bleak": 6248,
      "morality": 6249,
      "catherine": 6250,
      "rocks": 6251,
      "resour": 6252,
      "1990": 6253,
      "hibit": 6254,
      "jerk": 6255,
      "acceptable": 6256,
      "hanks": 6257,
      "complaint": 6258,
      "techniques": 6259,
      "vulner": 6260,
      "belongs": 6261,
      "guts": 6262,
      "iation": 6263,
      "mars": 6264,
      "oke": 6265,
      "punk": 6266,
      "sends": 6267,
      "zor": 6268,
      "onse": 6269,
      "encounters": 6270,
      "chances": 6271,
      "enters": 6272,
      "forgive": 6273,
      "sopr": 6274,
      "conceived": 6275,
      "boom": 6276,
      "partly": 6277,
      "turing": 6278,
      "taker": 6279,
      "portrait": 6280,
      "handful": 6281,
      "stronger": 6282,
      "attempted": 6283,
      "limit": 6284,
      "secretary": 6285,
      "luckily": 6286,
      "scientists": 6287,
      "birthday": 6288,
      "hooked": 6289,
      "ambitious": 6290,
      "attraction": 6291,
      "massacre": 6292,
      "horrendous": 6293,
      "daw": 6294,
      "fired": 6295,
      "gus": 6296,
      "kor": 6297,
      "kol": 6298,
      "mall": 6299,
      "thew": 6300,
      "returning": 6301,
      "nov": 6302,
      "lol": 6303,
      "root": 6304,
      "bold": 6305,
      "guide": 6306,
      "ishment": 6307,
      "....<": 6308,
      "drac": 6309,
      "string": 6310,
      "talked": 6311,
      "breed": 6312,
      "twin": 6313,
      "slim": 6314,
      "morris": 6315,
      "styles": 6316,
      "greg": 6317,
      "hamlet": 6318,
      "sexuality": 6319,
      "concerns": 6320,
      "briefly": 6321,
      "nuclear": 6322,
      "jamie": 6323,
      "thumbs": 6324,
      "adequate": 6325,
      "library": 6326,
      "splendid": 6327,
      "jeremy": 6328,
      "cun": 6329,
      "kitch": 6330,
      "rome": 6331,
      "sally": 6332,
      "redi": 6333,
      "poke": 6334,
      "manhatt": 6335,
      "estate": 6336,
      "pleased": 6337,
      "coach": 6338,
      "assa": 6339,
      "pses": 6340,
      "anski": 6341,
      "mato": 6342,
      "superfic": 6343,
      "slick": 6344,
      "luc": 6345,
      "vices": 6346,
      "engine": 6347,
      "2005": 6348,
      "allowing": 6349,
      "virus": 6350,
      "homage": 6351,
      "raped": 6352,
      "oooo": 6353,
      "achieved": 6354,
      "threatening": 6355,
      "surrounding": 6356,
      "surrounded": 6357,
      "charisma": 6358,
      "shirt": 6359,
      "destruction": 6360,
      "tremendous": 6361,
      "gothic": 6362,
      "bible": 6363,
      "eyed": 6364,
      "hmm": 6365,
      "macy": 6366,
      "slee": 6367,
      "represents": 6368,
      "tool": 6369,
      "ingredi": 6370,
      "noise": 6371,
      "butch": 6372,
      "neo": 6373,
      "urai": 6374,
      "gio": 6375,
      "opath": 6376,
      "screw": 6377,
      "reluct": 6378,
      "cared": 6379,
      "menacing": 6380,
      "cycl": 6381,
      "elsewhere": 6382,
      "silence": 6383,
      "distant": 6384,
      "importance": 6385,
      "pleasantly": 6386,
      "mistaken": 6387,
      "flawless": 6388,
      "stunts": 6389,
      "splatter": 6390,
      "shadows": 6391,
      "jesse": 6392,
      "gift": 6393,
      "dentist": 6394,
      "inevitable": 6395,
      "sneak": 6396,
      "flee": 6397,
      "gul": 6398,
      "nas": 6399,
      "ramp": 6400,
      "isha": 6401,
      "reactions": 6402,
      "enchant": 6403,
      "liking": 6404,
      "lifest": 6405,
      "webs": 6406,
      "myth": 6407,
      "spending": 6408,
      "blank": 6409,
      "serving": 6410,
      "carn": 6411,
      "creators": 6412,
      "cake": 6413,
      "custo": 6414,
      "thrills": 6415,
      "samurai": 6416,
      "ritter": 6417,
      "executive": 6418,
      "timo": 6419,
      "alexander": 6420,
      "fashioned": 6421,
      "falk": 6422,
      "pushed": 6423,
      "canada": 6424,
      "====": 6425,
      "abrup": 6426,
      "eyre": 6427,
      "eerie": 6428,
      "cannibal": 6429,
      "believably": 6430,
      "manhattan": 6431,
      "bis": 6432,
      "cies": 6433,
      "cig": 6434,
      "glover": 6435,
      "sadd": 6436,
      "tte": 6437,
      "inous": 6438,
      "reel": 6439,
      "replace": 6440,
      "tomato": 6441,
      "defe": 6442,
      "poison": 6443,
      "active": 6444,
      "confron": 6445,
      "conserv": 6446,
      "insist": 6447,
      "huh": 6448,
      "reasonable": 6449,
      "fancy": 6450,
      "shortly": 6451,
      "identify": 6452,
      "rooms": 6453,
      "spirited": 6454,
      "instantly": 6455,
      "1980s": 6456,
      "boxing": 6457,
      "photographed": 6458,
      "joey": 6459,
      "drags": 6460,
      "slightest": 6461,
      "repetitive": 6462,
      "walls": 6463,
      "smoke": 6464,
      "university": 6465,
      "frustrated": 6466,
      "australia": 6467,
      "strictly": 6468,
      "outrageous": 6469,
      "afore": 6470,
      "bby": 6471,
      "cen": 6472,
      "mour": 6473,
      "pir": 6474,
      "patch": 6475,
      "tha": 6476,
      "ala": 6477,
      "lix": 6478,
      "uninspired": 6479,
      "wives": 6480,
      "fever": 6481,
      "watches": 6482,
      "spar": 6483,
      "duke": 6484,
      "gotta": 6485,
      "carefully": 6486,
      "hype": 6487,
      "pulling": 6488,
      "frey": 6489,
      "easier": 6490,
      "lacked": 6491,
      "distinct": 6492,
      "swing": 6493,
      "hearts": 6494,
      "advance": 6495,
      "salv": 6496,
      "empire": 6497,
      "regardless": 6498,
      "continued": 6499,
      "loaded": 6500,
      "pushing": 6501,
      "drunken": 6502,
      "juliet": 6503,
      "resolution": 6504,
      "mitchell": 6505,
      "admittedly": 6506,
      "poverty": 6507,
      "exercise": 6508,
      "hul": 6509,
      "mun": 6510,
      "tad": 6511,
      "tel": 6512,
      "inj": 6513,
      "incoherent": 6514,
      "armed": 6515,
      "stir": 6516,
      "oman": 6517,
      "ential": 6518,
      "hem": 6519,
      "lip": 6520,
      "holy": 6521,
      "essence": 6522,
      "projects": 6523,
      "grav": 6524,
      "akshay": 6525,
      "turner": 6526,
      "glenn": 6527,
      "burning": 6528,
      "cameron": 6529,
      "drey": 6530,
      "messages": 6531,
      "brosn": 6532,
      "distance": 6533,
      "planning": 6534,
      "admire": 6535,
      "rifice": 6536,
      "orders": 6537,
      "goldberg": 6538,
      "response": 6539,
      "boredom": 6540,
      "revealing": 6541,
      "competition": 6542,
      "intrigued": 6543,
      "cardboard": 6544,
      "sacrifice": 6545,
      "scope": 6546,
      "precise": 6547,
      "miserably": 6548,
      "nicholson": 6549,
      "reduced": 6550,
      "dignity": 6551,
      "pseudo": 6552,
      "toilet": 6553,
      "dracula": 6554,
      "brosnan": 6555,
      "35": 6556,
      "size": 6557,
      "infect": 6558,
      "beer": 6559,
      "motor": 6560,
      "whale": 6561,
      "loser": 6562,
      "heat": 6563,
      "ables": 6564,
      "felix": 6565,
      "user": 6566,
      "activ": 6567,
      "timeless": 6568,
      "josh": 6569,
      "beings": 6570,
      "centric": 6571,
      "scripted": 6572,
      "romero": 6573,
      "generous": 6574,
      "brilliance": 6575,
      "picking": 6576,
      "laws": 6577,
      "doubted": 6578,
      "beaten": 6579,
      "photographer": 6580,
      "20th": 6581,
      "juven": 6582,
      "ginger": 6583,
      "requires": 6584,
      "adams": 6585,
      "blows": 6586,
      "digital": 6587,
      "remaining": 6588,
      "individuals": 6589,
      "kudos": 6590,
      "ironically": 6591,
      "associated": 6592,
      "revelation": 6593,
      "arrested": 6594,
      "currently": 6595,
      "directorial": 6596,
      "yesterday": 6597,
      "timothy": 6598,
      "dill": 6599,
      "glow": 6600,
      "lav": 6601,
      "muse": 6602,
      "nt": 6603,
      "pars": 6604,
      "ske": 6605,
      "reject": 6606,
      "asingly": 6607,
      "chen": 6608,
      "chand": 6609,
      "mod": 6610,
      "accused": 6611,
      "unpleasant": 6612,
      "filling": 6613,
      "rol": 6614,
      "fears": 6615,
      "maniac": 6616,
      "uristic": 6617,
      "esty": 6618,
      "prejud": 6619,
      "coast": 6620,
      "clu": 6621,
      "displays": 6622,
      "distract": 6623,
      "duo": 6624,
      "highlights": 6625,
      "subplot": 6626,
      "horrors": 6627,
      "superbly": 6628,
      "breasts": 6629,
      "extended": 6630,
      "bury": 6631,
      "aimed": 6632,
      "draws": 6633,
      "matched": 6634,
      "racial": 6635,
      "jumping": 6636,
      "discovery": 6637,
      "companion": 6638,
      "affected": 6639,
      "divorce": 6640,
      "conspiracy": 6641,
      "lund": 6642,
      "rational": 6643,
      "yon": 6644,
      "reli": 6645,
      "staged": 6646,
      "outcome": 6647,
      "apt": 6648,
      "estic": 6649,
      "convol": 6650,
      "ellar": 6651,
      "shin": 6652,
      "coinc": 6653,
      "clues": 6654,
      "bless": 6655,
      "realise": 6656,
      "afterwards": 6657,
      "giallo": 6658,
      "bucks": 6659,
      "brea": 6660,
      "misses": 6661,
      "......": 6662,
      "darker": 6663,
      "failing": 6664,
      "davies": 6665,
      "promised": 6666,
      "indians": 6667,
      "explored": 6668,
      "appalling": 6669,
      "bullet": 6670,
      "melodramatic": 6671,
      "argument": 6672,
      "dutch": 6673,
      "kidnapped": 6674,
      "musc": 6675,
      "increasingly": 6676,
      "translation": 6677,
      "settling": 6678,
      "altman": 6679,
      "!.": 6680,
      "imo": 6681,
      "ika": 6682,
      "nause": 6683,
      "zilla": 6684,
      "returned": 6685,
      "ingu": 6686,
      "edie": 6687,
      "aced": 6688,
      "roth": 6689,
      "goal": 6690,
      "exposed": 6691,
      "consequences": 6692,
      "artific": 6693,
      "guest": 6694,
      "ireland": 6695,
      "backs": 6696,
      "strang": 6697,
      "buried": 6698,
      "collabor": 6699,
      "persona": 6700,
      "holly": 6701,
      "slave": 6702,
      "spoiled": 6703,
      "annie": 6704,
      "2003": 6705,
      "2004": 6706,
      "drawing": 6707,
      "politic": 6708,
      "1996": 6709,
      "cruci": 6710,
      "narrator": 6711,
      "require": 6712,
      "depression": 6713,
      "gradually": 6714,
      "investigation": 6715,
      "griff": 6716,
      "bathroom": 6717,
      "sacrific": 6718,
      "korean": 6719,
      "gadget": 6720,
      "atlantis": 6721,
      "dawson": 6722,
      "?).": 6723,
      "dled": 6724,
      "ril": 6725,
      "wag": 6726,
      "album": 6727,
      "icy": 6728,
      "abc": 6729,
      "astaire": 6730,
      "inda": 6731,
      "overlooked": 6732,
      "blunt": 6733,
      "opposed": 6734,
      "coll": 6735,
      "worthless": 6736,
      "temper": 6737,
      "audio": 6738,
      "norman": 6739,
      "parent": 6740,
      "ticket": 6741,
      "importantly": 6742,
      "dropped": 6743,
      "cruise": 6744,
      "flynn": 6745,
      "1930s": 6746,
      "scientific": 6747,
      "gradu": 6748,
      "tunes": 6749,
      "loosely": 6750,
      "hatred": 6751,
      "bakshi": 6752,
      "motivation": 6753,
      "accomplished": 6754,
      "candid": 6755,
      "documentaries": 6756,
      "piano": 6757,
      "houses": 6758,
      "spooky": 6759,
      "restaurant": 6760,
      "childish": 6761,
      "heston": 6762,
      "kas": 6763,
      "tin": 6764,
      "ona": 6765,
      "encing": 6766,
      "logue": 6767,
      "suits": 6768,
      "suited": 6769,
      "peak": 6770,
      "enda": 6771,
      "ellen": 6772,
      "spon": 6773,
      "blast": 6774,
      "ensible": 6775,
      "wonders": 6776,
      "trio": 6777,
      "stole": 6778,
      "empath": 6779,
      "smug": 6780,
      "wondered": 6781,
      "polanski": 6782,
      "danes": 6783,
      "cycle": 6784,
      "vicious": 6785,
      "godzilla": 6786,
      "uniform": 6787,
      "confident": 6788,
      "instit": 6789,
      "royal": 6790,
      "kenneth": 6791,
      "population": 6792,
      "occurred": 6793,
      "biography": 6794,
      "precious": 6795,
      "fonda": 6796,
      "wannabe": 6797,
      "corporate": 6798,
      "liberal": 6799,
      "nurse": 6800,
      "captivating": 6801,
      "throat": 6802,
      "psychiatrist": 6803,
      "elaborate": 6804,
      "forbidden": 6805,
      "newspaper": 6806,
      "presumably": 6807,
      "'.<": 6808,
      "bent": 6809,
      "fist": 6810,
      "karen": 6811,
      "mile": 6812,
      "brig": 6813,
      "forgiven": 6814,
      "lips": 6815,
      "comics": 6816,
      "characterization": 6817,
      "spare": 6818,
      "lotte": 6819,
      "overdone": 6820,
      "disease": 6821,
      "marke": 6822,
      "carrie": 6823,
      "blob": 6824,
      "wallow": 6825,
      "craven": 6826,
      "engaged": 6827,
      "explore": 6828,
      "unky": 6829,
      "broadcast": 6830,
      "curiosity": 6831,
      "discussion": 6832,
      "fifteen": 6833,
      "absence": 6834,
      "electric": 6835,
      "dolph": 6836,
      "exaggerated": 6837,
      "yellow": 6838,
      "hamilton": 6839,
      "kitchen": 6840,
      "bite": 6841,
      "cried": 6842,
      "mast": 6843,
      "rank": 6844,
      "thugs": 6845,
      "isation": 6846,
      "ligh": 6847,
      "gee": 6848,
      "supre": 6849,
      "pee": 6850,
      "decor": 6851,
      "excl": 6852,
      "excruci": 6853,
      "perry": 6854,
      "este": 6855,
      "agre": 6856,
      "awake": 6857,
      "donna": 6858,
      "matthew": 6859,
      "observ": 6860,
      "aze": 6861,
      "nery": 6862,
      "sounding": 6863,
      "differences": 6864,
      "credited": 6865,
      "oses": 6866,
      "swear": 6867,
      "destiny": 6868,
      "beats": 6869,
      "photograph": 6870,
      "providing": 6871,
      "sunshine": 6872,
      "defend": 6873,
      "arrive": 6874,
      "andrews": 6875,
      "repeatedly": 6876,
      "conversations": 6877,
      "mummy": 6878,
      "garden": 6879,
      "receive": 6880,
      "eccentric": 6881,
      "idiots": 6882,
      "gandhi": 6883,
      "adoles": 6884,
      "superficial": 6885,
      "aforementioned": 6886,
      "griffith": 6887,
      "excruciating": 6888,
      "baf": 6889,
      "flies": 6890,
      "gimm": 6891,
      "kris": 6892,
      "zing": 6893,
      "argue": 6894,
      "stain": 6895,
      "sep": 6896,
      "acies": 6897,
      "icop": 6898,
      "height": 6899,
      "improved": 6900,
      "combat": 6901,
      "charlotte": 6902,
      "spider": 6903,
      "psis": 6904,
      "sail": 6905,
      "jewel": 6906,
      "helicop": 6907,
      "hyp": 6908,
      "imagined": 6909,
      "pulp": 6910,
      "cameras": 6911,
      "drivel": 6912,
      "christy": 6913,
      "souls": 6914,
      "groups": 6915,
      "instant": 6916,
      "possibility": 6917,
      "pressure": 6918,
      "rapid": 6919,
      "brains": 6920,
      "ranks": 6921,
      "territory": 6922,
      "psychotic": 6923,
      "demands": 6924,
      "ignored": 6925,
      "mountains": 6926,
      "philosoph": 6927,
      "wealth": 6928,
      "landscape": 6929,
      "warrior": 6930,
      "colonel": 6931,
      "elderly": 6932,
      "website": 6933,
      "convoluted": 6934,
      "cag": 6935,
      "dating": 6936,
      "dah": 6937,
      "lun": 6938,
      "lain": 6939,
      "rd": 6940,
      "rics": 6941,
      "iser": 6942,
      "rex": 6943,
      "encour": 6944,
      "toys": 6945,
      "stare": 6946,
      "chave": 6947,
      "aman": 6948,
      "undoubted": 6949,
      "meg": 6950,
      "worn": 6951,
      "worried": 6952,
      "veness": 6953,
      "grass": 6954,
      "uded": 6955,
      "pretend": 6956,
      "closet": 6957,
      "reasonably": 6958,
      "temple": 6959,
      "syno": 6960,
      "superhero": 6961,
      "tones": 6962,
      "label": 6963,
      "craig": 6964,
      "2007": 6965,
      "lawrence": 6966,
      "paulie": 6967,
      "movements": 6968,
      "devoted": 6969,
      "plicity": 6970,
      "secrets": 6971,
      "homer": 6972,
      "detailed": 6973,
      "meaningless": 6974,
      "contained": 6975,
      "bullets": 6976,
      "contrary": 6977,
      "popcorn": 6978,
      "greek": 6979,
      "resembles": 6980,
      "sloppy": 6981,
      "hysterical": 6982,
      "deliberately": 6983,
      "installment": 6984,
      "chavez": 6985,
      "cof": 6986,
      "cart": 6987,
      "grot": 6988,
      "iently": 6989,
      "arab": 6990,
      "chor": 6991,
      "chest": 6992,
      "/>'": 6993,
      "unbearable": 6994,
      "roof": 6995,
      "areas": 6996,
      "notably": 6997,
      "scroo": 6998,
      "diana": 6999,
      "antics": 7000,
      "coy": 7001,
      "grasp": 7002,
      "blake": 7003,
      "glamor": 7004,
      "settle": 7005,
      "leton": 7006,
      "writes": 7007,
      "walken": 7008,
      "garner": 7009,
      "bene": 7010,
      "ridiculously": 7011,
      "politically": 7012,
      "devast": 7013,
      "honesty": 7014,
      "flop": 7015,
      "wallace": 7016,
      "recognized": 7017,
      "attracted": 7018,
      "desperation": 7019,
      "cellu": 7020,
      "reynold": 7021,
      "laurel": 7022,
      "constructed": 7023,
      "scheme": 7024,
      "wrestling": 7025,
      "robots": 7026,
      "financial": 7027,
      "swedish": 7028,
      "margaret": 7029,
      "seventies": 7030,
      "gimmick": 7031,
      "cagney": 7032,
      "dave": 7033,
      "echo": 7034,
      "oce": 7035,
      "resur": 7036,
      "removed": 7037,
      "assem": 7038,
      "stack": 7039,
      "chic": 7040,
      "lope": 7041,
      "implausible": 7042,
      "terry": 7043,
      "uneven": 7044,
      "outfit": 7045,
      "soviet": 7046,
      "poll": 7047,
      "ifi": 7048,
      "oked": 7049,
      "blade": 7050,
      "offering": 7051,
      "horrid": 7052,
      "mayor": 7053,
      "stiller": 7054,
      "emily": 7055,
      "farce": 7056,
      "bargain": 7057,
      "hypo": 7058,
      "danie": 7059,
      "niro": 7060,
      "rukh": 7061,
      "sadistic": 7062,
      "explosion": 7063,
      "explosions": 7064,
      "futuristic": 7065,
      "explaining": 7066,
      "judging": 7067,
      "nearby": 7068,
      "!!!!!": 7069,
      "concerning": 7070,
      "intrigue": 7071,
      "sandra": 7072,
      "specif": 7073,
      "commercials": 7074,
      "achievement": 7075,
      "nazis": 7076,
      "brooklyn": 7077,
      "glorious": 7078,
      "____": 7079,
      "cringe": 7080,
      "grinch": 7081,
      "immensely": 7082,
      "subsequent": 7083,
      "juvenile": 7084,
      "celluloid": 7085,
      "reynolds": 7086,
      "bc": 7087,
      "cary": 7088,
      "daddy": 7089,
      "gere": 7090,
      "kir": 7091,
      "uwe": 7092,
      "vest": 7093,
      "resto": 7094,
      "resid": 7095,
      "stard": 7096,
      "leans": 7097,
      "vet": 7098,
      "ental": 7099,
      "devoid": 7100,
      "persu": 7101,
      "consu": 7102,
      "anyways": 7103,
      "istically": 7104,
      "clay": 7105,
      "enjoys": 7106,
      "relations": 7107,
      "closed": 7108,
      "harvey": 7109,
      "tommy": 7110,
      "ushi": 7111,
      "exploit": 7112,
      "transform": 7113,
      "cinematographer": 7114,
      "angeles": 7115,
      "screams": 7116,
      "kov": 7117,
      "reached": 7118,
      "opportun": 7119,
      "leonard": 7120,
      "symbolism": 7121,
      "francisco": 7122,
      "journalist": 7123,
      "overwhelming": 7124,
      "jealous": 7125,
      "clumsy": 7126,
      "synopsis": 7127,
      "fon": 7128,
      "hung": 7129,
      "ique": 7130,
      "tier": 7131,
      "tiger": 7132,
      "zes": 7133,
      "insur": 7134,
      "altogether": 7135,
      "staff": 7136,
      "bris": 7137,
      "accompan": 7138,
      "rook": 7139,
      "elic": 7140,
      "goers": 7141,
      "posure": 7142,
      "agan": 7143,
      "quie": 7144,
      "woo": 7145,
      "disjoint": 7146,
      "blend": 7147,
      "fried": 7148,
      "warren": 7149,
      "atten": 7150,
      "thoughtful": 7151,
      "kidding": 7152,
      "voight": 7153,
      "twel": 7154,
      "dances": 7155,
      "cuba": 7156,
      "sidekick": 7157,
      "heroic": 7158,
      "smaller": 7159,
      "garbo": 7160,
      "facing": 7161,
      "tracks": 7162,
      "genres": 7163,
      "cats": 7164,
      "kenned": 7165,
      "focusing": 7166,
      "penn": 7167,
      "historic": 7168,
      "rocket": 7169,
      "nightmares": 7170,
      "frustration": 7171,
      "iraq": 7172,
      "stinker": 7173,
      "lemmon": 7174,
      "wicked": 7175,
      "abysm": 7176,
      "lundgren": 7177,
      "agrees": 7178,
      "undoubtedly": 7179,
      "coffee": 7180,
      "gid": 7181,
      "hbo": 7182,
      "hates": 7183,
      "react": 7184,
      "repul": 7185,
      "onna": 7186,
      "adul": 7187,
      "util": 7188,
      "unit": 7189,
      "sophy": 7190,
      "neuro": 7191,
      "contrad": 7192,
      "acknow": 7193,
      "overrated": 7194,
      "...)": 7195,
      "march": 7196,
      "flav": 7197,
      "kings": 7198,
      "classes": 7199,
      "endings": 7200,
      "valu": 7201,
      "hollow": 7202,
      "planned": 7203,
      "purple": 7204,
      "undance": 7205,
      "bedroom": 7206,
      "palma": 7207,
      "judy": 7208,
      "mistress": 7209,
      "odds": 7210,
      "1999": 7211,
      "matches": 7212,
      "rambo": 7213,
      "stalker": 7214,
      "immig": 7215,
      "streep": 7216,
      "kapoor": 7217,
      "winds": 7218,
      "travels": 7219,
      "mesmer": 7220,
      "remarkably": 7221,
      "succeeded": 7222,
      "discuss": 7223,
      "transport": 7224,
      "brady": 7225,
      "possessed": 7226,
      "revolutionary": 7227,
      "fetched": 7228,
      "proceedings": 7229,
      "involvement": 7230,
      "modesty": 7231,
      "blatant": 7232,
      "obscure": 7233,
      "riveting": 7234,
      "lifestyle": 7235,
      "disjointed": 7236,
      "twelve": 7237,
      "daring": 7238,
      "jazz": 7239,
      "nuts": 7240,
      "trow": 7241,
      "wt": 7242,
      "waves": 7243,
      "yr": 7244,
      "inhabit": 7245,
      "resort": 7246,
      "outer": 7247,
      "whim": 7248,
      "verted": 7249,
      "versus": 7250,
      "unbelievably": 7251,
      "wizard": 7252,
      "solo": 7253,
      "trum": 7254,
      "plate": 7255,
      "quel": 7256,
      "udge": 7257,
      "embr": 7258,
      "nervous": 7259,
      "chronic": 7260,
      "murray": 7261,
      "sadness": 7262,
      "gging": 7263,
      "pays": 7264,
      "treats": 7265,
      "signs": 7266,
      "immort": 7267,
      "primarily": 7268,
      "nicol": 7269,
      "terrorist": 7270,
      "mildred": 7271,
      "tortured": 7272,
      "escaped": 7273,
      "models": 7274,
      "resemblance": 7275,
      "mobile": 7276,
      "linda": 7277,
      "principal": 7278,
      "glasses": 7279,
      "corruption": 7280,
      "waters": 7281,
      "assassin": 7282,
      "dynamic": 7283,
      "benefit": 7284,
      "florida": 7285,
      "prostitute": 7286,
      "cunning": 7287,
      "50s": 7288,
      "cd": 7289,
      "egy": 7290,
      "foul": 7291,
      "hints": 7292,
      "iveness": 7293,
      "jaf": 7294,
      "kers": 7295,
      "nell": 7296,
      "rural": 7297,
      "ata": 7298,
      "enem": 7299,
      "orches": 7300,
      "edith": 7301,
      "elim": 7302,
      "measure": 7303,
      "pert": 7304,
      "whoop": 7305,
      "boot": 7306,
      "blues": 7307,
      "horrifying": 7308,
      "gian": 7309,
      "1930": 7310,
      "wont": 7311,
      "producing": 7312,
      "hardcore": 7313,
      "jection": 7314,
      "pax": 7315,
      "merit": 7316,
      "harder": 7317,
      "gym": 7318,
      "burned": 7319,
      "wax": 7320,
      "generic": 7321,
      "painted": 7322,
      "maggie": 7323,
      "puer": 7324,
      "damage": 7325,
      "developing": 7326,
      "builds": 7327,
      "lected": 7328,
      "suitable": 7329,
      "dedicated": 7330,
      "sellers": 7331,
      "subtlety": 7332,
      "blowing": 7333,
      "influenced": 7334,
      "hideous": 7335,
      "decisions": 7336,
      "philosophy": 7337,
      "vulgar": 7338,
      "dalton": 7339,
      "beneath": 7340,
      "kennedy": 7341,
      "enemies": 7342,
      "22": 7343,
      "hou": 7344,
      "iors": 7345,
      "pard": 7346,
      "rag": 7347,
      "tam": 7348,
      "republic": 7349,
      "ilted": 7350,
      "chak": 7351,
      "unwatchable": 7352,
      "abh": 7353,
      "geo": 7354,
      "poo": 7355,
      "poon": 7356,
      "scot": 7357,
      "aggress": 7358,
      "igner": 7359,
      "grain": 7360,
      "akin": 7361,
      "claus": 7362,
      "rah": 7363,
      "rav": 7364,
      "awak": 7365,
      "newcom": 7366,
      "optim": 7367,
      "highest": 7368,
      "collap": 7369,
      "lasted": 7370,
      "hyper": 7371,
      "nail": 7372,
      "dialogues": 7373,
      "humili": 7374,
      "skull": 7375,
      "trees": 7376,
      "latin": 7377,
      "banks": 7378,
      "banned": 7379,
      "traveling": 7380,
      "recorded": 7381,
      "survival": 7382,
      "consistently": 7383,
      "montana": 7384,
      "suffic": 7385,
      "ethnic": 7386,
      "duty": 7387,
      "frequent": 7388,
      "unfolds": 7389,
      "chaos": 7390,
      "choreography": 7391,
      "monkeys": 7392,
      "saga": 7393,
      "stallone": 7394,
      "snake": 7395,
      "scrooge": 7396,
      "\";": 7397,
      "amo": 7398,
      "bread": 7399,
      "dil": 7400,
      "juni": 7401,
      "mers": 7402,
      "pants": 7403,
      "swi": 7404,
      "uth": 7405,
      "revers": 7406,
      "alert": 7407,
      "orter": 7408,
      "liar": 7409,
      "unintentional": 7410,
      "kell": 7411,
      "defeat": 7412,
      "notion": 7413,
      "nephe": 7414,
      "ollie": 7415,
      "guided": 7416,
      "assy": 7417,
      "directs": 7418,
      "faults": 7419,
      "belle": 7420,
      "belushi": 7421,
      "simil": 7422,
      "pretending": 7423,
      "clothing": 7424,
      "motives": 7425,
      "useful": 7426,
      "nathan": 7427,
      "shake": 7428,
      "mixt": 7429,
      "calm": 7430,
      "satir": 7431,
      "bands": 7432,
      "gundam": 7433,
      "collect": 7434,
      "staying": 7435,
      "1983": 7436,
      "senseless": 7437,
      "existed": 7438,
      "domino": 7439,
      "babe": 7440,
      "limits": 7441,
      "melting": 7442,
      "fluff": 7443,
      "gabr": 7444,
      "austen": 7445,
      "furthermore": 7446,
      "sales": 7447,
      "germans": 7448,
      "dolls": 7449,
      "surviving": 7450,
      "rotten": 7451,
      "loads": 7452,
      "enterprise": 7453,
      "investigate": 7454,
      "mickey": 7455,
      "global": 7456,
      "ruthless": 7457,
      "distracting": 7458,
      "threw": 7459,
      "robbery": 7460,
      "ingredients": 7461,
      "ib": 7462,
      "nun": 7463,
      "pink": 7464,
      "rud": 7465,
      "yn": 7466,
      "thet": 7467,
      "enh": 7468,
      "arc": 7469,
      "sele": 7470,
      "verho": 7471,
      "impro": 7472,
      "hob": 7473,
      "rio": 7474,
      "scrap": 7475,
      "composed": 7476,
      "exor": 7477,
      "exotic": 7478,
      "diane": 7479,
      "aux": 7480,
      "protest": 7481,
      "goodness": 7482,
      "wore": 7483,
      "serge": 7484,
      "izable": 7485,
      "performer": 7486,
      "parad": 7487,
      "viv": 7488,
      "kingdom": 7489,
      "menace": 7490,
      "covering": 7491,
      "distingu": 7492,
      "beatty": 7493,
      "possibilities": 7494,
      "bergman": 7495,
      "officers": 7496,
      "crocod": 7497,
      "primary": 7498,
      "trailers": 7499,
      "survived": 7500,
      "dickens": 7501,
      "species": 7502,
      "cracking": 7503,
      "arguably": 7504,
      "shelf": 7505,
      "construction": 7506,
      "isolated": 7507,
      "functional": 7508,
      "errors": 7509,
      "quisite": 7510,
      "innovative": 7511,
      "hypnot": 7512,
      "junior": 7513,
      "similarly": 7514,
      "cg": 7515,
      "cens": 7516,
      "cingly": 7517,
      "cards": 7518,
      "mcl": 7519,
      "pals": 7520,
      "rice": 7521,
      "rang": 7522,
      "sni": 7523,
      "sirk": 7524,
      "vice": 7525,
      "issa": 7526,
      "retain": 7527,
      "iter": 7528,
      "molly": 7529,
      "icon": 7530,
      "nod": 7531,
      "forty": 7532,
      "implic": 7533,
      "amit": 7534,
      "amid": 7535,
      "unhappy": 7536,
      "unsettling": 7537,
      "pear": 7538,
      "deaf": 7539,
      "decess": 7540,
      "doz": 7541,
      "illness": 7542,
      "fru": 7543,
      "endure": 7544,
      "predecess": 7545,
      "justify": 7546,
      "fulci": 7547,
      "disappear": 7548,
      "blur": 7549,
      "berry": 7550,
      "backdrop": 7551,
      "centered": 7552,
      "obtain": 7553,
      "sawa": 7554,
      "masters": 7555,
      "gerard": 7556,
      "buddies": 7557,
      "secondly": 7558,
      "causing": 7559,
      "lacklust": 7560,
      "murderous": 7561,
      "fantas": 7562,
      "frankie": 7563,
      "grandfather": 7564,
      "crucial": 7565,
      "catches": 7566,
      "fields": 7567,
      "trashy": 7568,
      "accuracy": 7569,
      "issance": 7570,
      "square": 7571,
      "celebrity": 7572,
      "flir": 7573,
      "motivations": 7574,
      "hartley": 7575,
      "--------": 7576,
      "swimming": 7577,
      "adorable": 7578,
      "nostalgic": 7579,
      "guarantee": 7580,
      "paranoia": 7581,
      "enormous": 7582,
      "museum": 7583,
      "mixture": 7584,
      "3rd": 7585,
      "90s": 7586,
      "ears": 7587,
      "ibly": 7588,
      "lers": 7589,
      "pom": 7590,
      "sits": 7591,
      "tame": 7592,
      "thread": 7593,
      "incompreh": 7594,
      "eries": 7595,
      "rec": 7596,
      "topless": 7597,
      "aristo": 7598,
      "lyrics": 7599,
      "whis": 7600,
      "acid": 7601,
      "heim": 7602,
      "amuse": 7603,
      "lifel": 7604,
      "poem": 7605,
      "urbed": 7606,
      "plat": 7607,
      "wet": 7608,
      "dian": 7609,
      "oks": 7610,
      "quotes": 7611,
      "preview": 7612,
      "prepar": 7613,
      "pros": 7614,
      "boli": 7615,
      "cancel": 7616,
      "blan": 7617,
      "offs": 7618,
      "berlin": 7619,
      "bela": 7620,
      "downhill": 7621,
      "smiling": 7622,
      "careers": 7623,
      "syl": 7624,
      "lumet": 7625,
      "earned": 7626,
      "defined": 7627,
      "namely": 7628,
      "dys": 7629,
      "disturbed": 7630,
      "purchase": 7631,
      "mysteries": 7632,
      "paltrow": 7633,
      "annah": 7634,
      "questionable": 7635,
      "faster": 7636,
      "describes": 7637,
      "vengeance": 7638,
      "aids": 7639,
      "scottish": 7640,
      "practice": 7641,
      "depressed": 7642,
      "jeffrey": 7643,
      "yawn": 7644,
      "appropriately": 7645,
      "krist": 7646,
      "frustrating": 7647,
      "shelley": 7648,
      "education": 7649,
      "solely": 7650,
      "simplistic": 7651,
      "inferior": 7652,
      "chorus": 7653,
      "verhoeven": 7654,
      "dozens": 7655,
      "73": 7656,
      "khan": 7657,
      "yell": 7658,
      "anded": 7659,
      "iceless": 7660,
      "imperson": 7661,
      "rooney": 7662,
      "absent": 7663,
      "button": 7664,
      "goo": 7665,
      "exposure": 7666,
      "agues": 7667,
      "preced": 7668,
      "cope": 7669,
      "grind": 7670,
      "cler": 7671,
      "blew": 7672,
      "fundam": 7673,
      "newly": 7674,
      "steel": 7675,
      "simplicity": 7676,
      "staring": 7677,
      "visions": 7678,
      "hyde": 7679,
      "spoke": 7680,
      "engross": 7681,
      "guessed": 7682,
      "legit": 7683,
      "wished": 7684,
      "confidence": 7685,
      "convincingly": 7686,
      "madonna": 7687,
      "transformation": 7688,
      "rising": 7689,
      "roller": 7690,
      "snip": 7691,
      "richardson": 7692,
      "similarities": 7693,
      "julian": 7694,
      "campbell": 7695,
      "dais": 7696,
      "potentially": 7697,
      "climactic": 7698,
      "nett": 7699,
      "kicked": 7700,
      "lena": 7701,
      "arrival": 7702,
      "authority": 7703,
      "olivier": 7704,
      "progresses": 7705,
      "employed": 7706,
      "audition": 7707,
      "civilization": 7708,
      "bacall": 7709,
      "emphasis": 7710,
      "survivors": 7711,
      "phrase": 7712,
      "pokemon": 7713,
      "tomatoes": 7714,
      "artificial": 7715,
      "specifically": 7716,
      "amitabh": 7717,
      "ik": 7718,
      "jod": 7719,
      "lil": 7720,
      "reid": 7721,
      "represented": 7722,
      "enlight": 7723,
      "illogical": 7724,
      "stellar": 7725,
      "bearing": 7726,
      "moody": 7727,
      "acle": 7728,
      "loren": 7729,
      "holo": 7730,
      "holl": 7731,
      "ularly": 7732,
      "quent": 7733,
      "indiffer": 7734,
      "coward": 7735,
      "grate": 7736,
      "raising": 7737,
      "affection": 7738,
      "priceless": 7739,
      "funeral": 7740,
      "cheating": 7741,
      "understated": 7742,
      "sabr": 7743,
      "subjects": 7744,
      "borg": 7745,
      "morrow": 7746,
      "considerable": 7747,
      "spirits": 7748,
      "mentioning": 7749,
      "hopper": 7750,
      "operation": 7751,
      "commented": 7752,
      "recognition": 7753,
      "stereotype": 7754,
      "reaches": 7755,
      "halluc": 7756,
      "foolish": 7757,
      "employe": 7758,
      "miserable": 7759,
      "dinosaurs": 7760,
      "exploration": 7761,
      "\"!": 7762,
      "egg": 7763,
      "kent": 7764,
      "nand": 7765,
      "tsu": 7766,
      "wone": 7767,
      "yok": 7768,
      "incompetent": 7769,
      "recru": 7770,
      "relies": 7771,
      "attor": 7772,
      "asto": 7773,
      "orson": 7774,
      "icia": 7775,
      "ambi": 7776,
      "pops": 7777,
      "apple": 7778,
      "connery": 7779,
      "antwone": 7780,
      "agents": 7781,
      "props": 7782,
      "offended": 7783,
      "duck": 7784,
      "interaction": 7785,
      "flam": 7786,
      "despair": 7787,
      "oph": 7788,
      "phony": 7789,
      "lette": 7790,
      "farrell": 7791,
      "aneously": 7792,
      "sentence": 7793,
      "ridden": 7794,
      "airport": 7795,
      "christians": 7796,
      "compens": 7797,
      "promin": 7798,
      "promises": 7799,
      "biko": 7800,
      "owen": 7801,
      "countryside": 7802,
      "snl": 7803,
      "dropping": 7804,
      "retro": 7805,
      "schlock": 7806,
      "1972": 7807,
      "ritual": 7808,
      "profession": 7809,
      "hunters": 7810,
      "introduces": 7811,
      "experiments": 7812,
      "cleverly": 7813,
      "circle": 7814,
      "1940": 7815,
      "reaching": 7816,
      "brutally": 7817,
      "exceptionally": 7818,
      "conflicts": 7819,
      "imaginable": 7820,
      "transc": 7821,
      "inventive": 7822,
      "eugene": 7823,
      "june": 7824,
      "ninja": 7825,
      "rubber": 7826,
      "israel": 7827,
      "arrogant": 7828,
      "poetic": 7829,
      "resources": 7830,
      "vulnerable": 7831,
      "grotesque": 7832,
      "ocean": 7833,
      "abysmal": 7834,
      "attorney": 7835,
      ":-": 7836,
      "dazz": 7837,
      "gum": 7838,
      "gender": 7839,
      "lately": 7840,
      "naught": 7841,
      "plight": 7842,
      "tz": 7843,
      "uh": 7844,
      "yelling": 7845,
      "zize": 7846,
      "inane": 7847,
      "online": 7848,
      "asion": 7849,
      "arian": 7850,
      "robe": 7851,
      "abort": 7852,
      "ulate": 7853,
      "nee": 7854,
      "trace": 7855,
      "tee": 7856,
      "quer": 7857,
      "shield": 7858,
      "rail": 7859,
      "displayed": 7860,
      "realizing": 7861,
      "persons": 7862,
      "tonight": 7863,
      "creator": 7864,
      "understandable": 7865,
      "greedy": 7866,
      "caly": 7867,
      "simpson": 7868,
      "inov": 7869,
      "damme": 7870,
      "transition": 7871,
      "thorn": 7872,
      "richards": 7873,
      "kyle": 7874,
      "catchy": 7875,
      "hurts": 7876,
      "delivering": 7877,
      "backgrounds": 7878,
      "1960": 7879,
      "washed": 7880,
      "witches": 7881,
      "nomination": 7882,
      "answered": 7883,
      "beliefs": 7884,
      "13th": 7885,
      "apocaly": 7886,
      "winters": 7887,
      "ignorant": 7888,
      "survivor": 7889,
      "ponder": 7890,
      "astound": 7891,
      "zizek": 7892,
      "\"-": 7893,
      "bau": 7894,
      "crip": 7895,
      "lic": 7896,
      "lest": 7897,
      "oting": 7898,
      "sappy": 7899,
      "vance": 7900,
      "infl": 7901,
      "aling": 7902,
      "alison": 7903,
      "assum": 7904,
      "oms": 7905,
      "bever": 7906,
      "amanda": 7907,
      "wig": 7908,
      "ros": 7909,
      "irrelevant": 7910,
      "sume": 7911,
      "subl": 7912,
      "peters": 7913,
      "illusion": 7914,
      "april": 7915,
      "exquisite": 7916,
      "weir": 7917,
      "condem": 7918,
      "dixon": 7919,
      "antino": 7920,
      "agreed": 7921,
      "myr": 7922,
      "showcase": 7923,
      "foe": 7924,
      "wrap": 7925,
      "parties": 7926,
      "stargate": 7927,
      "visits": 7928,
      "carell": 7929,
      "rows": 7930,
      "tember": 7931,
      "gerald": 7932,
      "dana": 7933,
      "earl": 7934,
      "waited": 7935,
      "messed": 7936,
      "distin": 7937,
      "towns": 7938,
      "prize": 7939,
      "suspic": 7940,
      "sweat": 7941,
      "weakest": 7942,
      "opinions": 7943,
      "domestic": 7944,
      "machines": 7945,
      "combine": 7946,
      "bonus": 7947,
      "fascinated": 7948,
      "fooled": 7949,
      "lengthy": 7950,
      "montage": 7951,
      "aaaa": 7952,
      "lifting": 7953,
      "abraham": 7954,
      "incidentally": 7955,
      "gentleman": 7956,
      "choreographed": 7957,
      "barrymore": 7958,
      "doomed": 7959,
      "destroying": 7960,
      "tiresome": 7961,
      "chamberlain": 7962,
      "adolescent": 7963,
      "september": 7964,
      "helicopter": 7965,
      "valuable": 7966,
      "egypt": 7967,
      "athan": 7968,
      "ethan": 7969,
      "honey": 7970,
      "sest": 7971,
      "uity": 7972,
      "wrench": 7973,
      "inappropriate": 7974,
      "stable": 7975,
      "vegas": 7976,
      "lift": 7977,
      "irs": 7978,
      "sue": 7979,
      "pete": 7980,
      "dose": 7981,
      "pole": 7982,
      "poser": 7983,
      "maj": 7984,
      "traff": 7985,
      "urge": 7986,
      "perpet": 7987,
      "shre": 7988,
      "astically": 7989,
      "grie": 7990,
      "claust": 7991,
      "guin": 7992,
      "bett": 7993,
      "betty": 7994,
      "willis": 7995,
      "mario": 7996,
      "matically": 7997,
      "cheated": 7998,
      "simmons": 7999
    },
    "merges": [
      [
        "t",
        "h"
      ],
      [
        "i",
        "n"
      ],
      [
        "th",
        "e"
      ],
      [
        "a",
        "n"
      ],
      [
        "e",
        "r"
      ],
      [
        "i",
        "s"
      ],
      [
        "r",
        "e"
      ],
      [
        "o",
        "n"
      ],
      [
        "a",
        "t"
      ],
      [
        "e",
        "n"
      ],
      [
        "t",
        "o"
      ],
      [
        "o",
        "u"
      ],
      [
        "in",
        "g"
      ],
      [
        "e",
        "s"
      ],
      [
        "a",
        "l"
      ],
      [
        "i",
        "t"
      ],
      [
        "a",
        "s"
      ],
      [
        "an",
        "d"
      ],
      [
        "o",
        "r"
      ],
      [
        "a",
        "r"
      ],
      [
        "o",
        "f"
      ],
      [
        "e",
        "d"
      ],
      [
        "i",
        "l"
      ],
      [
        "s",
        "t"
      ],
      [
        "l",
        "y"
      ],
      [
        "c",
        "h"
      ],
      [
        "b",
        "r"
      ],
      [
        "l",
        "e"
      ],
      [
        "s",
        "e"
      ],
      [
        "o",
        "m"
      ],
      [
        "/",
        ">"
      ],
      [
        "b",
        "e"
      ],
      [
        "m",
        "o"
      ],
      [
        "w",
        "h"
      ],
      [
        "a",
        "c"
      ],
      [
        "i",
        "c"
      ],
      [
        "v",
        "e"
      ],
      [
        "th",
        "is"
      ],
      [
        "n",
        "o"
      ],
      [
        "i",
        "e"
      ],
      [
        "a",
        "d"
      ],
      [
        "th",
        "at"
      ],
      [
        "v",
        "er"
      ],
      [
        "l",
        "o"
      ],
      [
        "u",
        "t"
      ],
      [
        "en",
        "t"
      ],
      [
        "f",
        "or"
      ],
      [
        "h",
        "e"
      ],
      [
        "i",
        "m"
      ],
      [
        "i",
        "on"
      ],
      [
        "a",
        "y"
      ],
      [
        "t",
        "er"
      ],
      [
        "a",
        "m"
      ],
      [
        "g",
        "h"
      ],
      [
        "l",
        "i"
      ],
      [
        "mo",
        "v"
      ],
      [
        "w",
        "as"
      ],
      [
        "u",
        "n"
      ],
      [
        "i",
        "d"
      ],
      [
        "w",
        "i"
      ],
      [
        "f",
        "il"
      ],
      [
        "r",
        "o"
      ],
      [
        "/>",
        "<"
      ],
      [
        "k",
        "e"
      ],
      [
        "fil",
        "m"
      ],
      [
        "wi",
        "th"
      ],
      [
        "a",
        "b"
      ],
      [
        "e",
        "l"
      ],
      [
        "h",
        "o"
      ],
      [
        "on",
        "e"
      ],
      [
        "l",
        "d"
      ],
      [
        "y",
        "ou"
      ],
      [
        "h",
        "a"
      ],
      [
        "b",
        "ut"
      ],
      [
        "mov",
        "ie"
      ],
      [
        "i",
        "r"
      ],
      [
        "a",
        "re"
      ],
      [
        "g",
        "e"
      ],
      [
        "s",
        "u"
      ],
      [
        "ou",
        "t"
      ],
      [
        "r",
        "i"
      ],
      [
        "s",
        "o"
      ],
      [
        "g",
        "o"
      ],
      [
        ".",
        "<"
      ],
      [
        "p",
        "e"
      ],
      [
        "al",
        "l"
      ],
      [
        "d",
        "e"
      ],
      [
        "c",
        "e"
      ],
      [
        "om",
        "e"
      ],
      [
        "u",
        "l"
      ],
      [
        "no",
        "t"
      ],
      [
        "d",
        "o"
      ],
      [
        "p",
        "o"
      ],
      [
        "al",
        "ly"
      ],
      [
        "the",
        "r"
      ],
      [
        "to",
        "r"
      ],
      [
        "f",
        "e"
      ],
      [
        "h",
        "is"
      ],
      [
        "n",
        "e"
      ],
      [
        "h",
        "er"
      ],
      [
        "t",
        "s"
      ],
      [
        "s",
        "c"
      ],
      [
        "o",
        "d"
      ],
      [
        "m",
        "a"
      ],
      [
        "c",
        "om"
      ],
      [
        "t",
        "r"
      ],
      [
        "il",
        "l"
      ],
      [
        "m",
        "an"
      ],
      [
        "a",
        "p"
      ],
      [
        "ou",
        "ld"
      ],
      [
        "i",
        "f"
      ],
      [
        "m",
        "e"
      ],
      [
        "u",
        "r"
      ],
      [
        "u",
        "s"
      ],
      [
        "e",
        "x"
      ],
      [
        "ha",
        "ve"
      ],
      [
        "ac",
        "t"
      ],
      [
        ".",
        "."
      ],
      [
        "s",
        "ome"
      ],
      [
        "f",
        "r"
      ],
      [
        "u",
        "st"
      ],
      [
        "p",
        "er"
      ],
      [
        "wh",
        "o"
      ],
      [
        "p",
        "l"
      ],
      [
        "gh",
        "t"
      ],
      [
        "w",
        "e"
      ],
      [
        "es",
        "t"
      ],
      [
        "c",
        "t"
      ],
      [
        "en",
        "d"
      ],
      [
        "c",
        "on"
      ],
      [
        "es",
        "s"
      ],
      [
        "b",
        "y"
      ],
      [
        "ver",
        "y"
      ],
      [
        "th",
        "ing"
      ],
      [
        "d",
        "i"
      ],
      [
        "a",
        "in"
      ],
      [
        "w",
        "or"
      ],
      [
        "the",
        "y"
      ],
      [
        "a",
        "u"
      ],
      [
        "li",
        "ke"
      ],
      [
        "se",
        "e"
      ],
      [
        "er",
        "e"
      ],
      [
        "ho",
        "w"
      ],
      [
        "an",
        "t"
      ],
      [
        "el",
        "l"
      ],
      [
        "a",
        "g"
      ],
      [
        "t",
        "im"
      ],
      [
        "p",
        "le"
      ],
      [
        "fr",
        "om"
      ],
      [
        "ar",
        "t"
      ],
      [
        "o",
        "k"
      ],
      [
        "t",
        "e"
      ],
      [
        "ou",
        "s"
      ],
      [
        "o",
        "l"
      ],
      [
        "u",
        "p"
      ],
      [
        "the",
        "re"
      ],
      [
        "q",
        "u"
      ],
      [
        "p",
        "re"
      ],
      [
        "v",
        "en"
      ],
      [
        "p",
        "ro"
      ],
      [
        "s",
        "h"
      ],
      [
        "i",
        "es"
      ],
      [
        "b",
        "o"
      ],
      [
        "ch",
        "ar"
      ],
      [
        "as",
        "t"
      ],
      [
        "j",
        "ust"
      ],
      [
        "at",
        "ion"
      ],
      [
        "wh",
        "at"
      ],
      [
        "ac",
        "k"
      ],
      [
        "ou",
        "gh"
      ],
      [
        "m",
        "y"
      ],
      [
        "ou",
        "n"
      ],
      [
        "w",
        "ay"
      ],
      [
        "in",
        "d"
      ],
      [
        "h",
        "as"
      ],
      [
        "o",
        "ther"
      ],
      [
        "c",
        "an"
      ],
      [
        "ab",
        "out"
      ],
      [
        "at",
        "e"
      ],
      [
        "er",
        "s"
      ],
      [
        "at",
        "ch"
      ],
      [
        "an",
        "y"
      ],
      [
        "i",
        "g"
      ],
      [
        "i",
        "ve"
      ],
      [
        "is",
        "t"
      ],
      [
        "s",
        "he"
      ],
      [
        "go",
        "od"
      ],
      [
        "d",
        "er"
      ],
      [
        "m",
        "ent"
      ],
      [
        "mo",
        "re"
      ],
      [
        "tor",
        "y"
      ],
      [
        "ar",
        "d"
      ],
      [
        "ge",
        "t"
      ],
      [
        "c",
        "o"
      ],
      [
        "ac",
        "ter"
      ],
      [
        "char",
        "acter"
      ],
      [
        "w",
        "atch"
      ],
      [
        "w",
        "n"
      ],
      [
        "in",
        "e"
      ],
      [
        "wh",
        "en"
      ],
      [
        "i",
        "ch"
      ],
      [
        "u",
        "re"
      ],
      [
        "g",
        "r"
      ],
      [
        "re",
        "at"
      ],
      [
        "on",
        "g"
      ],
      [
        "w",
        "ould"
      ],
      [
        "j",
        "o"
      ],
      [
        "ab",
        "le"
      ],
      [
        "tim",
        "e"
      ],
      [
        "e",
        "ven"
      ],
      [
        "s",
        "s"
      ],
      [
        "it",
        "y"
      ],
      [
        "s",
        "p"
      ],
      [
        "s",
        "tory"
      ],
      [
        "it",
        "e"
      ],
      [
        "a",
        "k"
      ],
      [
        "ou",
        "r"
      ],
      [
        "mo",
        "st"
      ],
      [
        "no",
        "w"
      ],
      [
        "oun",
        "d"
      ],
      [
        "f",
        "ul"
      ],
      [
        "am",
        "e"
      ],
      [
        "u",
        "m"
      ],
      [
        "c",
        "l"
      ],
      [
        "g",
        "u"
      ],
      [
        "in",
        "t"
      ],
      [
        "c",
        "k"
      ],
      [
        "wh",
        "ich"
      ],
      [
        "w",
        "o"
      ],
      [
        "t",
        "y"
      ],
      [
        "on",
        "ly"
      ],
      [
        "h",
        "ad"
      ],
      [
        "y",
        "e"
      ],
      [
        "re",
        "ally"
      ],
      [
        "id",
        "e"
      ],
      [
        "w",
        "ell"
      ],
      [
        "r",
        "a"
      ],
      [
        "it",
        "s"
      ],
      [
        "th",
        "an"
      ],
      [
        "b",
        "le"
      ],
      [
        "the",
        "ir"
      ],
      [
        "sc",
        "en"
      ],
      [
        "i",
        "ght"
      ],
      [
        "s",
        "how"
      ],
      [
        "be",
        "c"
      ],
      [
        "u",
        "ch"
      ],
      [
        "p",
        "t"
      ],
      [
        "lo",
        "t"
      ],
      [
        "w",
        "ere"
      ],
      [
        "h",
        "im"
      ],
      [
        "f",
        "o"
      ],
      [
        "pl",
        "ay"
      ],
      [
        "ad",
        "e"
      ],
      [
        "se",
        "l"
      ],
      [
        "a",
        "f"
      ],
      [
        "in",
        "k"
      ],
      [
        "d",
        "id"
      ],
      [
        "o",
        "ver"
      ],
      [
        "a",
        "v"
      ],
      [
        "ic",
        "k"
      ],
      [
        "a",
        "w"
      ],
      [
        "i",
        "ous"
      ],
      [
        "lo",
        "ok"
      ],
      [
        "do",
        "es"
      ],
      [
        "d",
        "on"
      ],
      [
        "it",
        "t"
      ],
      [
        "e",
        "p"
      ],
      [
        "d",
        "is"
      ],
      [
        "b",
        "ad"
      ],
      [
        "g",
        "reat"
      ],
      [
        "be",
        "t"
      ],
      [
        "p",
        "p"
      ],
      [
        "p",
        "r"
      ],
      [
        "b",
        "l"
      ],
      [
        "a",
        "ge"
      ],
      [
        "w",
        "ill"
      ],
      [
        "ar",
        "s"
      ],
      [
        "lo",
        "w"
      ],
      [
        "ic",
        "e"
      ],
      [
        "au",
        "se"
      ],
      [
        "en",
        "ce"
      ],
      [
        "of",
        "f"
      ],
      [
        "m",
        "uch"
      ],
      [
        "is",
        "h"
      ],
      [
        "the",
        "m"
      ],
      [
        "as",
        "s"
      ],
      [
        "f",
        "ir"
      ],
      [
        "di",
        "re"
      ],
      [
        "pe",
        "o"
      ],
      [
        "c",
        "i"
      ],
      [
        "c",
        "ould"
      ],
      [
        "peo",
        "ple"
      ],
      [
        "be",
        "en"
      ],
      [
        "e",
        "very"
      ],
      [
        "..",
        "."
      ],
      [
        "re",
        "al"
      ],
      [
        "in",
        "to"
      ],
      [
        "al",
        "so"
      ],
      [
        "fir",
        "st"
      ],
      [
        "ma",
        "k"
      ],
      [
        "c",
        "r"
      ],
      [
        "bec",
        "ause"
      ],
      [
        "th",
        "ink"
      ],
      [
        "b",
        "er"
      ],
      [
        "u",
        "d"
      ],
      [
        "ma",
        "ke"
      ],
      [
        "s",
        "er"
      ],
      [
        "or",
        "t"
      ],
      [
        "v",
        "es"
      ],
      [
        "i",
        "re"
      ],
      [
        "s",
        "on"
      ],
      [
        "f",
        "un"
      ],
      [
        "m",
        "ade"
      ],
      [
        "the",
        "n"
      ],
      [
        "w",
        "r"
      ],
      [
        "th",
        "r"
      ],
      [
        "to",
        "o"
      ],
      [
        "wor",
        "k"
      ],
      [
        "af",
        "ter"
      ],
      [
        "wh",
        "ere"
      ],
      [
        "d",
        "u"
      ],
      [
        "f",
        "a"
      ],
      [
        "in",
        "ter"
      ],
      [
        "ac",
        "e"
      ],
      [
        "m",
        "ar"
      ],
      [
        "sel",
        "f"
      ],
      [
        "il",
        "e"
      ],
      [
        "p",
        "art"
      ],
      [
        "k",
        "now"
      ],
      [
        "mov",
        "ies"
      ],
      [
        "s",
        "ay"
      ],
      [
        "e",
        "ver"
      ],
      [
        "see",
        "m"
      ],
      [
        "l",
        "l"
      ],
      [
        "v",
        "ie"
      ],
      [
        "at",
        "ed"
      ],
      [
        "c",
        "re"
      ],
      [
        "s",
        "pe"
      ],
      [
        "th",
        "ough"
      ],
      [
        "ic",
        "al"
      ],
      [
        "p",
        "s"
      ],
      [
        "ac",
        "tor"
      ],
      [
        "d",
        "r"
      ],
      [
        "t",
        "ing"
      ],
      [
        "f",
        "l"
      ],
      [
        "f",
        "in"
      ],
      [
        "re",
        "n"
      ],
      [
        "character",
        "s"
      ],
      [
        "vie",
        "w"
      ],
      [
        "lo",
        "ve"
      ],
      [
        "v",
        "ing"
      ],
      [
        "l",
        "ess"
      ],
      [
        "t",
        "ain"
      ],
      [
        "b",
        "ack"
      ],
      [
        "d",
        "es"
      ],
      [
        "an",
        "ce"
      ],
      [
        "an",
        "s"
      ],
      [
        "a",
        "ch"
      ],
      [
        "t",
        "wo"
      ],
      [
        "man",
        "y"
      ],
      [
        "li",
        "fe"
      ],
      [
        "p",
        "lot"
      ],
      [
        "you",
        "r"
      ],
      [
        "film",
        "s"
      ],
      [
        "h",
        "or"
      ],
      [
        "ne",
        "ver"
      ],
      [
        "an",
        "g"
      ],
      [
        "be",
        "ing"
      ],
      [
        "act",
        "ing"
      ],
      [
        "n",
        "y"
      ],
      [
        "se",
        "en"
      ],
      [
        "m",
        "in"
      ],
      [
        "st",
        "r"
      ],
      [
        "d",
        "ay"
      ],
      [
        "s",
        "ho"
      ],
      [
        "ar",
        "y"
      ],
      [
        "her",
        "e"
      ],
      [
        "t",
        "al"
      ],
      [
        "c",
        "es"
      ],
      [
        "be",
        "l"
      ],
      [
        "m",
        "at"
      ],
      [
        "g",
        "i"
      ],
      [
        "b",
        "est"
      ],
      [
        ")",
        ","
      ],
      [
        "itt",
        "le"
      ],
      [
        "t",
        "a"
      ],
      [
        "l",
        "ittle"
      ],
      [
        "thr",
        "ough"
      ],
      [
        "t",
        "ur"
      ],
      [
        "c",
        "tor"
      ],
      [
        "ch",
        "e"
      ],
      [
        "ct",
        "ion"
      ],
      [
        "ne",
        "w"
      ],
      [
        "re",
        "e"
      ],
      [
        ")",
        "."
      ],
      [
        "tr",
        "y"
      ],
      [
        "c",
        "ent"
      ],
      [
        "1",
        "9"
      ],
      [
        "po",
        "int"
      ],
      [
        "il",
        "y"
      ],
      [
        "en",
        "s"
      ],
      [
        "i",
        "gh"
      ],
      [
        "m",
        "ay"
      ],
      [
        "k",
        "ill"
      ],
      [
        "fo",
        "re"
      ],
      [
        "m",
        "is"
      ],
      [
        "i",
        "z"
      ],
      [
        "ic",
        "t"
      ],
      [
        "v",
        "ed"
      ],
      [
        "f",
        "er"
      ],
      [
        "o",
        "se"
      ],
      [
        "c",
        "ar"
      ],
      [
        "u",
        "ally"
      ],
      [
        "wh",
        "ile"
      ],
      [
        "am",
        "er"
      ],
      [
        "st",
        "ill"
      ],
      [
        "bet",
        "ter"
      ],
      [
        "e",
        "f"
      ],
      [
        "o",
        "t"
      ],
      [
        "-",
        "-"
      ],
      [
        "n",
        "ing"
      ],
      [
        "su",
        "r"
      ],
      [
        "tr",
        "u"
      ],
      [
        "f",
        "ri"
      ],
      [
        "per",
        "for"
      ],
      [
        "g",
        "en"
      ],
      [
        "w",
        "on"
      ],
      [
        "un",
        "der"
      ],
      [
        "ag",
        "ain"
      ],
      [
        "!",
        "!"
      ],
      [
        "sh",
        "ould"
      ],
      [
        "a",
        "ve"
      ],
      [
        "o",
        "ld"
      ],
      [
        "scen",
        "e"
      ],
      [
        "c",
        "ast"
      ],
      [
        "f",
        "ind"
      ],
      [
        "the",
        "se"
      ],
      [
        "il",
        "d"
      ],
      [
        "as",
        "e"
      ],
      [
        "st",
        "e"
      ],
      [
        "re",
        "ad"
      ],
      [
        "au",
        "gh"
      ],
      [
        "o",
        "p"
      ],
      [
        "w",
        "ant"
      ],
      [
        "m",
        "on"
      ],
      [
        "s",
        "im"
      ],
      [
        "wh",
        "y"
      ],
      [
        "fe",
        "el"
      ],
      [
        "scen",
        "es"
      ],
      [
        "ver",
        "s"
      ],
      [
        "r",
        "y"
      ],
      [
        "dire",
        "ctor"
      ],
      [
        "ou",
        "ght"
      ],
      [
        "p",
        "ar"
      ],
      [
        "st",
        "and"
      ],
      [
        "er",
        "tain"
      ],
      [
        "su",
        "ch"
      ],
      [
        "1",
        "0"
      ],
      [
        "ha",
        "pp"
      ],
      [
        "f",
        "am"
      ],
      [
        "inter",
        "est"
      ],
      [
        "some",
        "thing"
      ],
      [
        "l",
        "es"
      ],
      [
        "ch",
        "o"
      ],
      [
        "ir",
        "l"
      ],
      [
        "fri",
        "end"
      ],
      [
        "e",
        "v"
      ],
      [
        "a",
        "th"
      ],
      [
        "t",
        "ri"
      ],
      [
        "bel",
        "ie"
      ],
      [
        "re",
        "d"
      ],
      [
        "g",
        "irl"
      ],
      [
        "s",
        "to"
      ],
      [
        "is",
        "e"
      ],
      [
        "ab",
        "ly"
      ],
      [
        "i",
        "an"
      ],
      [
        "ion",
        "s"
      ],
      [
        "p",
        "h"
      ],
      [
        "e",
        "t"
      ],
      [
        "at",
        "ing"
      ],
      [
        "tur",
        "n"
      ],
      [
        "sc",
        "re"
      ],
      [
        "w",
        "om"
      ],
      [
        "perfor",
        "man"
      ],
      [
        "go",
        "t"
      ],
      [
        "do",
        "wn"
      ],
      [
        "en",
        "se"
      ],
      [
        "jo",
        "y"
      ],
      [
        "pre",
        "t"
      ],
      [
        "as",
        "on"
      ],
      [
        "m",
        "us"
      ],
      [
        "ar",
        "ly"
      ],
      [
        "r",
        "or"
      ],
      [
        "st",
        "ar"
      ],
      [
        "in",
        "s"
      ],
      [
        "th",
        "ose"
      ],
      [
        "t",
        "ak"
      ],
      [
        "watch",
        "ing"
      ],
      [
        "actor",
        "s"
      ],
      [
        "o",
        "b"
      ],
      [
        "w",
        "ar"
      ],
      [
        "does",
        "n"
      ],
      [
        "fun",
        "ny"
      ],
      [
        "g",
        "l"
      ],
      [
        "po",
        "s"
      ],
      [
        "b",
        "ig"
      ],
      [
        "ent",
        "s"
      ],
      [
        "tim",
        "es"
      ],
      [
        "i",
        "p"
      ],
      [
        "ye",
        "ars"
      ],
      [
        "in",
        "al"
      ],
      [
        "com",
        "m"
      ],
      [
        "e",
        "m"
      ],
      [
        "i",
        "al"
      ],
      [
        "l",
        "ong"
      ],
      [
        "did",
        "n"
      ],
      [
        "n",
        "g"
      ],
      [
        "as",
        "h"
      ],
      [
        "at",
        "t"
      ],
      [
        "me",
        "m"
      ],
      [
        "an",
        "other"
      ],
      [
        "se",
        "t"
      ],
      [
        "en",
        "joy"
      ],
      [
        "at",
        "er"
      ],
      [
        "com",
        "ed"
      ],
      [
        "you",
        "ng"
      ],
      [
        "gu",
        "y"
      ],
      [
        "be",
        "fore"
      ],
      [
        "way",
        "s"
      ],
      [
        "v",
        "i"
      ],
      [
        "no",
        "thing"
      ],
      [
        "o",
        "wn"
      ],
      [
        "mak",
        "es"
      ],
      [
        "go",
        "ing"
      ],
      [
        "or",
        "ig"
      ],
      [
        "b",
        "u"
      ],
      [
        "h",
        "igh"
      ],
      [
        "b",
        "it"
      ],
      [
        "pro",
        "du"
      ],
      [
        "wor",
        "ld"
      ],
      [
        "k",
        "ing"
      ],
      [
        "c",
        "ol"
      ],
      [
        "act",
        "ually"
      ],
      [
        "v",
        "is"
      ],
      [
        "a",
        "z"
      ],
      [
        "p",
        "ut"
      ],
      [
        "s",
        "m"
      ],
      [
        "h",
        "u"
      ],
      [
        "ri",
        "ght"
      ],
      [
        "s",
        "ame"
      ],
      [
        "fe",
        "ct"
      ],
      [
        "fe",
        "w"
      ],
      [
        "ex",
        "c"
      ],
      [
        "u",
        "al"
      ],
      [
        "s",
        "a"
      ],
      [
        "act",
        "ion"
      ],
      [
        "d",
        "if"
      ],
      [
        "ic",
        "ul"
      ],
      [
        "le",
        "t"
      ],
      [
        "li",
        "ght"
      ],
      [
        "re",
        "l"
      ],
      [
        "l",
        "augh"
      ],
      [
        "com",
        "es"
      ],
      [
        "h",
        "ard"
      ],
      [
        "c",
        "or"
      ],
      [
        "su",
        "b"
      ],
      [
        "wo",
        "od"
      ],
      [
        "s",
        "in"
      ],
      [
        "c",
        "ome"
      ],
      [
        "j",
        "e"
      ],
      [
        "ap",
        "pe"
      ],
      [
        "b",
        "or"
      ],
      [
        "s",
        "ing"
      ],
      [
        "c",
        "ts"
      ],
      [
        "p",
        "or"
      ],
      [
        "qu",
        "ite"
      ],
      [
        "t",
        "ed"
      ],
      [
        "f",
        "ar"
      ],
      [
        "ut",
        "e"
      ],
      [
        "scre",
        "en"
      ],
      [
        "c",
        "le"
      ],
      [
        "ne",
        "ed"
      ],
      [
        "hor",
        "ror"
      ],
      [
        "orig",
        "inal"
      ],
      [
        "pe",
        "ct"
      ],
      [
        "we",
        "en"
      ],
      [
        "com",
        "ple"
      ],
      [
        "pret",
        "ty"
      ],
      [
        "he",
        "l"
      ],
      [
        "th",
        "ought"
      ],
      [
        "wr",
        "it"
      ],
      [
        "thing",
        "s"
      ],
      [
        "f",
        "act"
      ],
      [
        "p",
        "a"
      ],
      [
        "won",
        "der"
      ],
      [
        "t",
        "en"
      ],
      [
        "ri",
        "pt"
      ],
      [
        "re",
        "ss"
      ],
      [
        "ar",
        "ound"
      ],
      [
        "ta",
        "ke"
      ],
      [
        "m",
        "ind"
      ],
      [
        "seem",
        "s"
      ],
      [
        "n",
        "er"
      ],
      [
        "per",
        "son"
      ],
      [
        "k",
        "id"
      ],
      [
        "i",
        "a"
      ],
      [
        "k",
        "s"
      ],
      [
        "su",
        "re"
      ],
      [
        "*",
        "*"
      ],
      [
        "t",
        "ell"
      ],
      [
        "ho",
        "we"
      ],
      [
        "howe",
        "ver"
      ],
      [
        "be",
        "g"
      ],
      [
        "in",
        "v"
      ],
      [
        "k",
        "ind"
      ],
      [
        "b",
        "as"
      ],
      [
        "a",
        "ut"
      ],
      [
        "ce",
        "pt"
      ],
      [
        "ci",
        "al"
      ],
      [
        "con",
        "t"
      ],
      [
        "g",
        "ive"
      ],
      [
        "p",
        "are"
      ],
      [
        "ic",
        "ally"
      ],
      [
        "s",
        "aw"
      ],
      [
        "amer",
        "ic"
      ],
      [
        "en",
        "ough"
      ],
      [
        "ser",
        "ies"
      ],
      [
        "for",
        "t"
      ],
      [
        "bet",
        "ween"
      ],
      [
        "st",
        "er"
      ],
      [
        "c",
        "our"
      ],
      [
        "w",
        "ard"
      ],
      [
        "ma",
        "in"
      ],
      [
        "bo",
        "th"
      ],
      [
        "sc",
        "ript"
      ],
      [
        "od",
        "y"
      ],
      [
        "ge",
        "ts"
      ],
      [
        "interest",
        "ing"
      ],
      [
        "c",
        "are"
      ],
      [
        "ate",
        "ly"
      ],
[...]
